0
0
0
0
0
0
0
0
0
0
0
0
0
0
0
0
0
0
0
0
0
0
0
0
0
0
0
0
0
0
0
0
0
0
0
0
0
0
0
0
0
0
0
0
0
0
0
0
0
0
0
0
0
0
0
0
0
0
0
0
0
0
0
0
0
0
0
0
0
10
10
100
100
10
1
0
0
0
0
0
0
0
0
0
0
0
0
0
0
0
0
0
0
11111111
0
0
101
110
10
10
110
10
1
11
11
1
0
0
0
0
0
0
0
0
0
0
0
0
11111111
11111111
0
0
0
0
0
100
1
100
0
0
1
0
0
11
0
0
11111111
0
0
0
0
0
0
0
0
1
1
1
10
11
100
1
0
100
0
1
1
101
0
11111110
11
0
0
1
0
0
0
0
0
0
0
0
11111111
1
10
11
10
100
10
101
11
0
1
10
10
11111111
11111111
11111100
11111101
11111111
11111111
11111111
10
10
0
0
0
0
0
0
11111111
0
1
10
11111111
11111111
1
10
10
100
101
110
101
0
1
11111011
11111110
11111110
0
0
11
1
0
0
0
0
0
0
0
0
11111110
11111110
0
0
11
1
0
10
1001
1100
10
11111010
0
11111011
1
11111111
0
1
11
0
0
0
0
0
0
0
0
11111111
11111110
0
10
0
1
11
101
101
1010
101
11111010
11111001
11111100
11111011
11111100
11111011
0
0
1
0
0
0
0
0
0
0
0
11111111
0
11111101
11111101
11111111
11111110
10
1000
1110
1000
11111110
11110100
11111000
11111000
11111010
11111010
11110111
11111011
11111100
11111101
0
0
0
0
0
0
11111111
0
11111111
0
11111011
11111101
0
11111101
10
100
100
11111011
11111000
11111100
11111111
11111011
11111111
11111010
11111001
11111000
11111010
11111010
11111101
0
0
0
0
0
11111111
1
11111110
11111111
0
101
111
1
10
11
11111110
11111010
11111100
11111110
11111010
0
0
0
11111101
0
11111101
11111001
11111101
0
0
0
0
0
0
1
1
11111110
11111100
0
10
11
101
11
11111001
11111011
0
0
11111100
11111101
10
11
10
1
0
11111110
11111110
0
0
0
0
0
0
0
0
11111110
11111101
0
10
100
11
0
11110111
11111100
0
11111100
11111110
0
1
0
11
101
100
0
11111110
0
0
0
0
0
0
0
11111111
11111110
11111110
11111101
0
0
11111110
1
11111100
11111011
11111110
11111111
10
100
10
10
11
10
110
1
11111111
11111111
0
0
0
0
0
10
11111111
11111100
11111110
11111111
11111111
10
1
11111100
11111010
11111100
11111111
11111011
11111111
1
1
0
0
1
10
0
11111111
11111111
0
0
0
0
1
1
0
11111101
11111111
11111101
0
100
0
11111100
11111000
11111111
11111111
11111011
11111111
1
11111111
11111100
11111101
0
10
0
0
0
0
0
0
0
0
10
11
0
0
11111110
0
11111110
11111001
11111010
11111100
11
0
11
11
1
1
1
1
0
11
0
0
0
0
0
0
0
0
10
0
11111111
11111111
11111101
11111001
11111000
11111100
11111011
10
1001
100
10
11
0
0
0
11111111
11111110
0
0
0
0
0
0
0
0
0
1
10
0
0
0
1
11111110
0
11111101
100
1011
10
10
100
0
10
11111111
11111110
1
10
0
0
0
0
0
0
0
0
1
10
11111110
0
100
11111110
11111111
0
0
10
11
11
11
0
110
10
11
0
1
0
0
1
0
0
0
0
0
0
10
10
11111011
11111101
10
0
11111100
11111110
10
10
100
100
10
10
1
1
1
0
0
1
0
0
0
0
0
0
0
0
1
1
0
11111100
11111100
11111101
0
11111111
10
10
10
0
1
0
11111110
101
100
0
11111110
0
0
0
0
0
0
0
0
0
0
0
11111110
0
10
0
0
0
1
10
1
0
0
11
1
10
10
0
11111111
0
0
0
0
0
0
0
0
0
0
11111111
11111101
11111110
0
11111110
11111010
11111110
10
101
10
0
0
1
10
0
0
11111111
0
1
0
0
0
0
0
0
0
0
0
11111111
11111111
0
0
0
11111110
11111101
11111111
11111110
11111111
1
10
0
0
10
1
0
0
0
0
0
0
0
0
0
0
0
0
0
0
0
0
0
0
0
0
0
0
11111111
0
0
0
0
0
0
0
0
0
0
0
0
