0
0
0
0
0
0
0
0
0
0
0
0
0
0
0
0
0
0
0
0
0
0
0
0
0
0
0
0
0
0
0
0
0
0
0
0
0
0
0
0
0
0
0
0
0
0
0
0
0
0
0
0
0
0
0
0
0
0
0
0
0
0
0
1
1
0
1
1
10
11
10
11
10
1
1
10
0
0
0
0
0
0
0
0
0
0
0
0
0
0
1
1
10
10
10
1
100
111
10
1
1
11111111
0
0
0
11111111
0
0
0
0
0
0
0
0
0
0
0
0
0
0
1
0
0
11111101
11111111
11111110
11111111
1
0
11111110
11111111
1
11111111
11111101
11111111
0
0
0
0
0
0
0
0
0
0
0
11111111
1
0
0
11111110
11111110
11111110
1
11111110
11
1
11111111
1
0
1
10
0
0
1
11111111
0
0
0
0
0
0
1
0
0
11111111
11111111
0
11111111
0
11111111
1
1
11111111
0
11111111
10
11111101
11111111
11111101
11111101
0
0
11111111
0
0
0
0
0
0
0
11111111
11111110
11111111
11111100
11111111
11111101
11111100
11111101
11111001
1
11111100
11111110
11111100
11111011
11111000
11111000
11111010
11111101
11111101
11111011
11111011
0
0
0
0
0
0
0
11111101
11111101
11111110
11111011
11111100
11111101
11111010
11111100
11111001
11111000
11110111
11110110
11111010
11111100
11111101
11111101
11111111
11111110
11111011
11111100
11111111
0
0
0
0
0
0
0
11111110
0
11
0
11111100
11111001
11111011
11111011
11111000
11111100
0
11111101
11111010
11111100
11111110
11111111
11111100
11111111
11111111
0
0
0
0
0
0
0
0
10
0
11111111
0
0
0
11111100
11111110
11111101
0
100
1001
110
11
11111110
11111111
11111101
11111110
0
1
10
10
0
0
0
0
0
1
11
10
11111101
11111110
0
11111101
0
10
11111101
11
110
1011
110
110
110
11
11
10
1
10
1
0
0
0
0
0
0
0
10
0
11111101
0
11111110
11111100
0
11111110
11111011
1
1000
101
101
110
110
111
101
1
10
100
0
0
0
0
0
0
0
0
0
0
0
0
11111111
11111011
11111010
11111001
11111110
0
11
0
101
0
10
111
110
101
100
11
11
0
0
0
0
0
0
0
11111111
11111110
11111111
11111111
11111100
11111101
11111101
1
1
0
0
11111111
1
11111001
0
101
101
101
110
10
10
0
0
0
0
0
0
0
11111110
11111110
0
0
11111100
11111110
11111101
11111111
11111111
0
11111111
11111101
11111111
11111011
11111111
10
101
11
11
10
0
0
11111111
0
0
0
0
0
0
0
1
11111111
11111101
11111011
11111101
0
11111011
11111111
0
1
11111110
11111111
11
1
11
10
10
11111110
11111111
11111111
0
0
0
0
0
0
0
10
100
0
0
11111110
100
1
0
11111101
11111111
0
11111111
0
11111111
1
1
0
0
0
0
11111111
0
0
0
0
0
1
0
0
11111110
11111101
100
10
10
0
10
1
11
11
0
11111101
11111101
11111110
11111110
11111110
11111100
0
1
0
0
0
0
0
0
1
0
0
11111111
11111111
1
100
1
1
1
100
101
10
10
11111111
11111110
11111110
11111101
11111100
11111110
0
0
0
0
0
0
0
0
0
11111111
0
0
0
10
11
11
0
0
0
110
0
0
11111110
0
11111100
11111101
0
11111110
11111111
0
0
0
0
0
0
11111111
11111110
11111110
0
1
1
1
11
111
110
101
10
11
1
0
0
11111111
11111110
0
11111101
11111100
11111101
11111111
0
0
0
0
0
0
11111111
11111111
1
0
0
11111101
10
0
11111101
11111110
0
0
0
1
0
11111101
11111111
11111110
11111100
11111101
11111101
11111111
0
0
0
0
0
0
0
1
100
10
11111111
11111110
11111111
11111110
11111011
11111101
11111101
11111001
11111101
11111111
11111111
11111101
11111111
11111110
11111101
11111111
11111111
0
0
0
0
0
0
0
0
0
1
1
0
11111111
11111111
11111111
11111010
11111010
11111011
11111011
11111100
11111111
0
11111110
11111111
11111110
11111101
11111111
0
0
0
0
0
0
0
0
0
0
0
0
0
0
11111111
11111100
11111100
0
11111110
11111101
11111010
11111101
11111111
11111111
0
0
0
0
0
0
0
0
0
0
0
0
0
0
0
0
0
0
0
0
0
0
0
0
0
0
0
11111111
0
0
0
0
0
0
0
0
0
0
0
0
0
0
0
0
0
0
0
0
0
0
0
0
0
0
0
0
0
0
0
0
0
0
0
0
0
