0
0
0
0
0
0
0
0
0
0
0
0
0
0
0
0
0
0
0
0
0
0
0
0
0
0
0
0
0
0
0
0
0
0
0
0
0
0
0
0
0
0
0
0
0
0
0
0
0
0
0
0
0
0
0
0
0
0
0
0
0
0
0
0
0
0
0
0
0
1
1
1
0
0
0
0
0
0
0
0
0
0
0
0
0
0
0
0
0
0
0
0
0
0
0
0
0
11111111
0
11111111
11111101
11111110
0
0
0
1
1
0
0
0
0
0
0
0
0
0
0
11111111
11111111
0
0
0
0
0
0
10
0
0
0
0
11111111
0
0
0
11111110
0
1
1
0
0
0
0
0
0
0
11111111
11111110
0
11111110
11111111
0
11111100
11111101
1
11111110
0
11111110
11111110
11111101
11111111
0
0
1
11111111
1
0
0
0
0
0
0
0
0
11111111
11111110
11111111
11111111
10
1
0
11111100
11111110
11111110
10
0
11111110
0
11111110
11
11111101
1
10
10
1
0
0
0
0
0
0
10
1
11111110
11111111
101
100
11
11111111
0
11111111
11111110
0
11111110
11111101
11
11111101
0
11111101
11111101
1
11
1
0
0
0
0
0
0
11
10
1
10
0
11111111
1
11111110
11111100
11111111
11111011
11111101
0
11111100
11111111
11111100
0
11111110
11111100
11111111
100
0
1
0
0
0
0
1
0
11111111
0
1
1
11111111
101
0
11111100
11111111
0
0
11111001
11111110
11111011
11111101
11111110
11111101
11111010
0
10
1
1
0
0
0
0
1
10
11111111
1
10
0
11111111
0
0
11111110
11111111
1101
1
11111001
11110101
0
11111011
11111101
11111001
11111101
10
0
11111111
0
0
0
0
0
1
10
1
11111111
10
11
0
110
10
0
111
10100
1000
0
11110101
11111111
11111111
11111110
11111110
0
11
10
0
0
0
0
0
0
1
10
1
0
0
0
11111101
11111111
10
11
1100
10100
1010
0
0
0
10
0
100
0
10
1
0
0
0
0
0
0
1
10
11111111
0
0
1
11111101
0
110
1000
111
1011
1100
11
0
100
110
100
100
101
10
0
0
0
0
0
0
0
1
11111111
11111101
11111110
11111101
0
1
101
111
111
1011
1000
110
10
101
111
111
100
111
100
0
10
1
0
0
0
0
0
0
11111101
11111110
11111100
0
11
10
10
1000
1000
111
1011
10
110
0
111
1000
0
0
1
0
1
1
11111111
0
0
0
0
0
11111100
11111111
11111111
11111111
11
101
100
100
11
111
11
100
1
0
0
11111111
11111100
11111100
0
0
0
1
0
0
0
0
0
11111111
11111011
11111001
11111101
11111111
11111101
1
11
101
101
110
100
11111111
11111111
11111110
11111001
11111110
11111110
11111111
11111111
1
1
11111111
0
0
0
0
0
0
11111010
11111001
11111000
11111000
11111011
11111010
11111100
0
11
111
11
11111101
11111111
11111100
11111001
11111011
10
11111111
11111110
0
0
0
0
0
0
0
0
0
11111101
11111101
11111001
11110110
11111000
11111001
11110101
11110101
11111110
11111101
11111010
11111111
11111110
0
0
11111111
11111101
0
11111110
0
0
0
0
0
0
0
0
0
11111111
0
0
11111111
11111011
11111001
11111010
11110110
11111001
11111111
0
11
1
101
0
11111101
10
10
11111111
11111101
11111111
1
0
0
0
0
0
0
0
1
100
1
0
11111111
11111100
11111101
11111011
11111100
11111111
11111111
0
11111111
0
11111100
0
0
11111111
11111011
11111101
0
0
0
0
0
0
0
1
1
1
10
0
11111110
10
10
0
11111100
11111111
11111100
11111110
11111100
11111110
11111111
11111110
11111101
11111101
11111100
11111111
0
0
0
0
0
0
0
0
11111111
11111100
11111100
101
0
11111111
11111011
11111111
0
0
11
101
11111111
11111111
0
11111110
11111110
1
1
0
0
0
0
0
0
0
0
11111111
11111101
11111011
11111100
11111111
10
110
100
10
11
11
11111110
0
11111101
0
1
0
0
1
10
0
0
0
0
0
0
0
0
11111110
11111110
1
0
11111111
11111101
0
11111101
11111100
1
0
10
101
10
1
10
0
10
1
0
0
0
0
0
0
0
0
0
0
1
10
0
11111111
11111111
1
0
0
10
11111110
11111101
11111110
0
0
11111111
0
0
0
0
0
0
0
0
0
0
0
0
0
0
0
0
0
0
0
0
0
0
0
0
0
0
0
0
0
0
0
0
0
0
0
0
