0
0
0
0
0
0
0
0
0
0
0
0
0
0
0
0
0
0
0
0
0
0
0
0
0
0
0
0
0
0
0
0
0
0
0
0
0
0
0
0
0
0
0
0
0
0
0
0
0
0
0
0
0
0
0
0
0
0
0
0
0
0
0
0
0
0
0
0
0
1
0
1
1
0
0
1
0
0
0
0
0
0
0
0
0
0
0
0
0
0
0
0
0
0
0
11111111
10
11
11
101
11
10
11
1
0
0
0
0
0
0
0
0
0
0
0
0
0
0
0
0
0
0
1
10
10
0
11
101
1
11111011
11111101
11111111
11111011
0
10
10
10
0
0
0
0
0
0
0
0
10
0
0
0
0
11111110
11111001
11111101
0
101
1
11
1
11111111
0
10
0
100
111
11
11111111
0
0
0
0
0
0
1
11
1
11111111
0
11111110
11111100
11111101
11111110
0
0
11111110
11111101
11111111
0
1
10
11111111
10
11
100
0
1
0
0
0
0
10
11
1
0
1
1
0
11111110
0
0
11111101
0
11111011
10
0
0
0
10
11111111
11
100
0
0
1
0
0
0
0
1
10
1
11111110
0
0
11111101
11111110
11
11
11111110
11111011
11111101
11111100
11111101
100
1
100
1
100
11
0
0
1
0
0
0
0
1
11
11111110
0
0
1
11111111
11111011
1
1
1
0
11111100
11111001
11111011
11111111
1
10
1
101
100
11
11
0
0
0
0
0
11
100
11111101
11111011
11111111
1
0
0
10
11
100
1
11111111
11111101
11111110
11111010
11111111
11111110
1
110
101
1000
111
1
0
0
0
1
10
110
0
11111110
11111000
11111101
11111111
1
0
10
11
11111111
11111110
0
11111111
1
11111011
11111100
11111111
10
100
110
11
0
0
0
0
0
0
1
1
0
0
11111100
11111110
11
100
1000
11
0
11111101
11111111
11111000
11111110
11111100
11111001
11111011
11111101
11111110
11111111
0
0
0
0
0
0
0
0
10
10
11111110
11111111
11111110
110
1000
11
11111111
11111011
11111100
11111001
11110111
11111011
11111011
11111101
11111110
11111011
11111010
11111100
0
0
0
0
0
0
1
0
0
11111111
0
11
111
1001
0
11111011
11111000
11111100
11
0
11111111
11111100
11111111
0
11111111
11111100
11111111
11111101
0
0
0
0
0
0
0
11111111
0
1
11
1010
1100
1001
11110111
11110110
11111011
11111101
0
11111100
11111100
1
0
1
100
1
11111111
11111111
11111111
0
0
0
0
0
0
11111111
11111110
1
1001
101
101
0
11110101
11111001
11111101
11111100
11
11111011
0
10
101
101
101
10
0
0
11111111
0
0
0
0
0
1
0
11111110
1000
1000
11111110
0
11111101
11111010
11111011
11111000
11111111
1
11111111
0
100
11
0
110
10
1
0
11111110
0
0
0
0
0
10
0
10
1000
10
0
10
11111011
11111011
11110111
11111000
10
11
101
10
0
100
10
111
1
10
0
11111111
0
0
0
0
0
1
1
110
101
100
100
110
11111110
11111101
11111001
11111001
10
11
101
101
10
10
1
100
10
10
1
0
0
0
0
0
0
10
11
110
1000
11
10
1000
1011
101
0
0
11111110
0
101
101
111
10
11
100
100
11
0
0
0
0
0
0
0
1
100
100
110
110
11
11111111
10
0
1
0
11111101
1
0
100
11
11
110
11
1
0
0
0
0
0
0
0
0
0
1
1
11111111
0
0
10
0
11
100
11111100
11111111
100
11111111
11
1
111
11
0
11111111
11111111
11111111
0
0
0
0
0
0
0
1
1
11111101
11111101
11111111
0
0
11111111
0
11111111
11111111
11
1
1
11111101
0
11111110
11111101
11111101
11111111
0
0
0
0
0
0
0
0
10
0
11111111
11111111
11111111
11
100
100
100
100
10
11
10
101
10
11111101
11111100
11111111
0
11111111
0
0
0
0
0
0
0
0
0
0
11111111
0
0
0
1
1
100
1
11111110
11
1
0
11
10
0
0
0
0
0
0
0
0
0
0
0
0
0
11111111
11111111
0
11111111
11111111
11111111
0
10
0
11111110
1
1
0
0
10
0
0
0
0
0
0
0
0
0
0
0
0
0
0
0
0
0
0
0
0
0
0
0
0
0
0
0
0
0
0
0
0
0
0
0
0
