0
0
0
0
0
0
0
0
0
0
0
0
0
0
0
0
0
0
0
0
0
0
0
0
0
0
0
0
0
0
0
0
0
0
0
0
0
0
0
0
0
0
0
0
1
0
0
0
0
0
0
0
0
0
0
0
0
0
0
0
0
0
0
0
0
0
0
0
0
0
0
11111111
11111111
11111111
0
0
11111111
0
0
0
0
0
0
0
0
0
0
0
0
0
0
11111111
11111111
11111111
11111111
11111111
11111101
11111101
11111101
11111100
11111100
11111101
11111110
11111111
0
0
0
11111111
11111111
0
0
0
0
0
0
0
0
0
11111111
11111101
11111101
11111100
11111011
11111011
11111000
11111010
11111100
11111100
11111111
0
0
11111110
11111010
11111100
11111100
0
0
1
0
0
0
0
0
0
0
0
11111111
11111101
11111011
11111010
11111010
11111011
11111010
11111111
0
0
1
1
0
11111111
0
11111111
0
11111110
11111110
0
0
0
0
0
0
0
0
0
0
11111110
11111011
11111010
11111110
11111110
0
11111110
11111100
11111110
11111110
0
0
10
10
10
1
11111111
11111111
0
0
0
0
0
0
0
11111111
0
10
0
11111110
11111110
0
0
1
0
11111100
11111110
11111110
0
11
0
0
0
0
1
1
1
0
0
0
0
0
0
11111111
1
1
0
1
0
0
11111010
11
0
0
11111101
0
0
1
11111111
101
0
0
100
101
10
0
0
0
0
0
0
0
1
1
10
11111111
0
0
0
101
111
11
1
0
10
0
0
11
0
1
11
110
11
0
0
0
0
1
0
1
0
11
11
11111111
1
100
100
110
1011
1001
111
110
11
101
0
100
0
10
11
11
100
1
0
0
0
0
1
1
11111111
11
0
11111111
11111111
11111110
1
11111110
10
110
110
1
0
11
101
1
10
10
110
100
10
1
0
0
0
0
0
1
11111111
10
10
0
1
0
11111110
11111110
11111111
1
100
11111101
0
11
11
1
11111101
1
100
0
0
0
0
0
0
0
0
0
0
10
0
0
10
0
11111111
100
0
0
11111001
11111011
11110111
11111011
11111110
11111111
0
0
0
10
0
0
0
0
0
0
0
0
0
10
0
0
1
1
0
10
0
11111101
11111010
11110110
11111101
11111011
11111011
0
10
0
10
101
0
0
0
0
0
0
1
0
11111111
1
110
0
0
0
0
0
11111100
11111010
11111100
11111100
11111111
11111111
11111101
11111111
1
11111100
11
11
0
0
0
0
0
0
0
10
1
10
11111111
100
11
10
11111111
11111100
11110111
11111100
11111110
0
11111110
11111011
11111101
11111111
11111011
11111110
1
0
0
0
0
0
0
0
0
0
100
11
1
110
1001
11
11111101
11110101
11111100
1
1
1
0
11111100
11111101
0
11111100
11111110
1
11
0
0
0
0
0
0
11111101
11111111
10
10
1
110
10
0
11111011
11110110
11111101
1
0
11111111
11111110
11111101
11111101
11111100
11111110
0
1
11
1
0
0
0
0
0
11111101
11111111
0
0
11111110
10
0
11111101
11111010
11111101
11
1
11111111
11111100
10
0
11111010
11111110
11111110
1
0
1
1
0
0
0
0
0
11111101
11111101
101
1
11111111
1
1
1
11111100
11111110
1
11111011
0
11111110
11
11111101
11111001
11111010
11111101
0
0
0
1
0
0
0
0
0
11111101
11111010
0
0
11
10
10
100
10
11111110
11111011
11111010
11111111
11111011
11111001
11111100
11111011
11111010
11111111
1
0
1
1
0
0
0
0
0
0
11111101
11111110
1
0
0
11
100
0
0
1
11
11111110
11111010
11111100
0
11111110
11111011
11111110
1
1
10
10
0
0
0
0
0
0
11111111
11111111
0
11111110
0
0
101
110
10
11111101
11111110
11111101
0
0
0
11111111
11111100
11111101
0
1
1
0
0
0
0
0
0
0
11111111
0
11111110
11111110
11111110
11111111
1
0
0
0
11111101
11111101
0
10
11111111
11111111
11111110
11111110
0
0
0
0
0
0
0
0
0
0
0
0
11111110
11111110
11111101
11111011
11111100
11111111
11111111
0
0
11111111
0
1
0
0
0
0
0
1
0
0
0
0
0
0
0
0
0
0
11111111
11111111
0
0
1
1
10
11
1
0
0
0
0
1
0
0
0
0
0
0
0
0
0
0
0
0
0
0
0
0
0
0
0
0
0
0
0
0
0
0
0
0
0
0
0
0
0
0
0
0
