0
0
0
0
0
0
0
0
0
0
0
0
0
0
0
0
0
0
0
0
0
0
0
0
0
0
0
0
0
0
0
0
0
0
0
0
0
0
0
0
0
0
0
0
0
0
0
0
0
0
0
0
0
0
0
0
0
0
0
0
0
0
0
0
0
0
0
0
0
0
0
0
0
0
0
0
0
0
0
0
0
0
0
0
0
0
0
0
0
0
0
0
0
0
0
0
0
0
11111111
0
0
11111111
0
0
11111111
0
1
0
0
0
0
0
0
0
0
0
0
11111111
11111110
11111110
11111100
11111111
11111101
11111110
0
1
11
0
1
0
11111111
11111101
11111101
0
0
10
10
0
0
0
0
0
0
0
11111110
11111100
11111010
11111001
11111001
11111101
11111110
0
11111111
11
11
11111110
11111111
1
0
11111111
0
0
11
10
0
0
0
0
0
0
0
0
11111101
11111100
11110111
11111011
11111101
11111101
0
101
1000
1000
110
11111110
11111001
11111101
11111100
11
11111110
1
111
101
10
0
0
0
0
0
0
0
11111101
11111111
0
0
1
101
101
111
1000
111
11
11111000
11111001
0
100
10
1
10
10
110
110
1
0
0
0
0
0
0
11111100
11111110
1
0
11111110
11
0
111
1000
101
1
11111011
11111100
0
11111110
10
11
11111101
0
111
111
10
0
0
0
0
0
0
11111101
11111110
11111111
0
11111110
0
11111111
110
111
11
11111001
11111000
0
0
110
11
0
1
0
1000
110
0
0
0
0
0
0
0
0
10
0
100
1
0
11
111
1000
100
11111100
11111010
11111011
1
110
0
11111111
11
100
101
101
1
0
0
0
0
0
0
11111111
0
1
1
11111111
0
1
100
1101
110
11111000
11110100
11111011
11111111
1
11111101
11111001
0
10
0
10
0
0
0
0
0
0
0
11111110
11111110
0
10
10
0
0
11
1000
1000
11111000
11111001
11111001
11111111
1
0
11111110
0
10
0
1
0
0
0
0
0
0
0
11111100
0
11111110
11
1
1
101
101
111
1
11111010
11111101
11111010
11111101
11111100
11111101
0
11111100
11111111
1
11
1
0
0
0
0
0
11111111
11111110
0
0
100
11
1
10
110
10
11111100
11111100
11111101
11111011
0
11111010
11111101
11111110
11111111
1
11
11
1
0
0
0
0
0
0
0
11111110
0
101
11
101
1
101
1
11111001
11111010
11111010
11111100
11111111
11111101
11111101
11111100
11111111
11111110
11
10
0
0
0
0
0
0
0
0
11111111
11111110
0
11
1
1
110
101
11111101
11111001
11111100
0
11111111
11111101
0
11111110
0
11111111
1
1
0
0
0
0
0
0
11111111
11111111
10
10
11111110
11111101
10
101
11
0
11111101
11111111
0
10
11111110
11111101
0
100
0
1
11111111
0
0
0
0
0
0
0
11111111
0
11
101
1
11111111
101
10
0
1
11111011
11111110
11111101
11111110
11111101
11111011
11111111
0
11111111
0
11111110
0
0
0
0
0
0
0
11111111
11111110
0
1000
11
1
100
101
110
11111100
11111111
11111011
11111011
11111100
11111100
11111011
11111101
11111111
11111111
11111111
11111101
11111110
0
0
0
0
0
0
0
11111101
0
101
1
11111110
100
111
100
11
11111111
11111110
0
11111101
11111001
11111110
11111111
0
0
11111111
11111100
11111111
0
0
0
0
0
0
0
11111110
0
11111111
0
1
101
101
1001
0
0
11111110
0
11111011
0
0
0
100
0
0
11111101
11111110
0
0
0
0
0
0
0
11111111
0
0
0
10
100
101
110
0
11111111
0
10
11111111
11111110
11111110
1
11111111
0
11111111
11111110
11111101
0
0
0
0
0
0
11111111
11111111
0
0
1
1
11111111
0
101
11
1
101
0
1
11111111
11111101
0
11111101
11111111
11111110
11111111
11111110
0
0
0
0
0
0
11111111
11111110
11111110
0
0
11111110
0
0
100
101
10
1
1
100
0
0
0
11111111
0
0
11111111
0
0
0
0
0
0
0
0
0
11111110
11111110
11111100
11111001
11111100
10
11
10
10
0
100
10
0
0
0
11111110
0
0
0
0
0
0
0
0
0
0
0
0
11111111
11111110
11111110
11111101
11111101
11111101
0
0
11111110
11111011
11111111
0
11111110
11111111
1
0
0
0
0
0
0
0
0
0
0
0
0
0
0
0
0
0
0
0
0
0
0
0
0
0
0
0
0
0
0
0
0
0
0
0
0
