0
0
0
0
0
0
0
0
0
0
0
0
0
0
0
0
0
0
0
0
0
0
0
0
0
0
0
0
0
0
0
0
0
0
0
0
0
0
0
0
0
0
0
0
0
0
0
0
0
0
0
0
0
0
0
0
0
0
0
0
0
0
0
0
0
0
0
0
11111111
0
11111111
11111110
11111111
0
0
0
0
0
0
0
0
0
0
0
0
0
0
0
0
0
0
11111111
11111110
11111110
11111101
11111100
11111101
11111110
11111110
11111100
11111100
0
0
11111111
0
0
0
0
0
0
0
0
0
0
0
0
0
0
0
11111110
11111110
11111101
11111110
11111110
11111110
11111110
11111011
11111101
11111101
11111101
11111111
11111111
11111110
0
0
0
0
0
0
0
0
0
0
0
0
1
1
0
0
11111111
11111100
11111011
11111101
0
1
11111110
10
0
11111111
11111100
11111101
11111110
11111110
11111111
0
0
0
0
0
0
0
0
11111111
11111111
0
11111101
11111110
11111110
11111101
0
11111111
11111000
11111011
11111100
11111111
11111111
0
11111101
11111010
0
11111110
11111101
11111110
0
0
0
0
0
0
0
11111110
11111100
0
100
11111101
11111110
11111110
11111100
10
11111101
11111111
11110110
11111011
11111111
11
11111101
11111111
11111111
11111110
11111110
11111110
0
0
0
0
0
0
0
0
11111101
0
111
1000
101
101
1
110
10
11111111
11111111
11111011
0
11111110
11111101
1
11111101
11111110
1
0
11111111
0
0
0
0
0
1
10
1
0
11
11
11
11
10
0
1
11
0
0
0
11111100
11111101
11111110
10
0
0
11111111
0
0
0
0
0
10
10
11
11
1
11111110
11111110
11111111
100
11111100
0
1010
11
11111100
11111111
11111110
0
11111111
10
100
10
0
11111110
0
0
0
0
0
11
101
111
100
11111111
11
11111011
10
100
101
100
101
0
11111100
11111101
1
11
11
11
10
0
11111111
11111110
0
0
0
0
0
10
11
100
10
0
1000
1011
111
10
110
110
11111110
11111010
11111101
0
11111111
11
11111111
0
0
0
11111010
11111110
1
0
0
0
0
1
10
11
110
111
11111111
11
11111111
11111111
10
11111000
11110001
11111010
11111001
11111110
0
11111111
11110110
1
11111111
11111110
11111011
11111111
1
0
0
0
0
0
1
11111111
0
0
11111101
0
11111010
11111110
11111100
11110100
11111000
11111111
11111011
11111111
0
11111111
11111110
11111001
11111010
11111101
0
0
1
0
0
0
0
0
0
11111110
11111100
11111110
0
11111110
11111111
11111101
11110110
11110110
0
10
11111110
11111011
11111110
11111101
11111011
11111111
11111100
11111101
11111111
10
10
10
0
0
0
0
0
11111111
11111010
11111011
11111111
11111110
11111101
11111011
11110001
11111010
1
10
100
0
11111110
11111101
1
10
0
0
10
11
1
10
0
0
0
0
11111111
11111111
11111100
11111001
11110111
11110110
11110010
11111010
11111011
11111110
100
11
10
1
1
10
0
10
10
1
10
10
1
10
0
0
0
0
11111110
11111110
11111100
11111101
11111011
11111001
11111010
11111100
11111110
11
110
11
10
0
110
11
100
11
110
1
1
1
0
0
0
0
0
0
11111110
1
11111111
11111110
11111011
11111110
0
0
11111111
11111101
11
11
100
11111110
10
11111110
0
1
0
11111111
11111111
0
0
0
0
0
0
0
11111111
0
11111101
11111110
11111100
0
0
11111111
10
1
110
100
1000
11111100
11111111
11111101
11111110
11111110
0
11111111
0
11111111
11111111
0
0
0
0
0
11111111
0
0
0
11111100
10
10
11
11111110
11111101
11111111
0
110
10
0
0
11111111
11111111
11111110
11111110
0
0
0
0
0
0
0
0
0
0
1
10
1
11
111
1
11111111
0
11111110
0
110
11
11
11
0
0
11111110
11111101
11111111
0
0
0
0
0
0
0
11111111
0
1
10
1
11111111
11
11111110
11111111
1
0
11111101
0
11
101
11
10
0
11111111
11111110
11111110
0
0
0
0
0
0
0
0
0
0
10
11111111
0
0
11111101
11111111
11111110
1
0
10
1
101
10
1
0
1
0
11111110
0
0
0
0
0
0
0
0
0
11111110
11111101
11111101
11111111
11
0
0
11
11111111
1
1
1
11111111
11111111
0
11111101
11111111
11111111
11111111
0
0
0
0
0
0
0
0
11111111
11111110
11111110
11111111
11111111
1
0
1
0
0
11111101
11111111
0
11111110
0
1
0
0
0
0
0
0
0
0
0
0
0
0
0
0
0
0
0
0
1
0
11111111
0
0
0
1
0
0
0
0
0
0
0
0
0
0
0
