0
0
0
0
0
0
0
0
0
0
0
0
0
0
0
0
0
0
0
0
0
0
0
0
0
0
0
0
0
0
0
0
0
0
0
0
0
0
0
0
0
0
0
0
0
0
0
0
0
0
0
0
0
0
0
0
0
0
0
0
0
0
0
0
0
0
0
0
0
1
0
1
1
0
0
0
0
0
0
0
0
0
0
0
0
0
0
0
0
0
0
0
11111111
0
0
10
0
1
11
11
1
0
10
1
1
10
1
1
0
0
0
0
0
0
0
0
0
0
0
0
0
1
11111101
11111011
0
101
10
11111111
11
0
0
10
11
1
11111110
11111110
11111111
11111111
0
0
0
0
0
0
0
0
0
0
11111111
0
1
10
0
11111110
0
11
0
0
11111101
0
11111111
0
11111111
11111100
11111101
11111111
0
0
0
0
0
0
11111111
11111110
11111111
11
1
1
0
0
0
11111100
11111110
11111111
0
0
1
100
11111111
11111011
11111111
11111111
11111101
11111110
11111111
0
0
0
0
11111111
0
1
11111111
0
0
0
0
11111110
1
11111111
11111101
110
11111110
11111111
10
0
11111110
10
0
11111111
11111101
11111110
11111110
0
0
0
0
0
0
0
1
11
11
0
0
1
0
10
1
10
11111110
11111101
11111101
0
11
11111111
11111111
11111110
11111011
11111100
11111111
0
0
0
0
0
11111110
1
0
1
0
11111101
1
0
11111100
11111011
11111110
11111111
11111110
11111100
0
0
0
0
0
0
11111110
11111101
0
0
0
0
0
11111101
0
1
1
10
11111100
110
0
11111100
0
0
0
11111111
10
0
11111101
1
0
11111101
0
10
0
11111101
11111111
0
0
0
11111110
11111111
11111101
11111111
11111110
0
10
100
0
11111111
10
11111111
111
101
1000
11111111
11111100
1
11111110
1
0
0
1
11111111
0
0
0
0
11111111
11111111
11111101
11111111
0
0
0
0
11111101
11111111
0
0
101
1010
11
1
0
0
11111110
0
11111010
0
10
0
0
0
0
0
0
11111111
11111101
11111100
11111111
11111111
0
11
11111110
1
0
0
11111101
110
100
0
0
0
11111110
11111010
11111011
11111111
0
0
0
0
0
0
0
11111111
11111110
0
11111101
11111100
0
101
10
1
11111101
10
100
0
1000
111
10
10
10
11111101
11111011
11111010
11111111
1
0
0
0
0
0
0
11111110
0
0
0
1
1
11111111
0
0
0
11
11111111
100
11
0
11111111
11111110
11111100
11111101
11111011
11111101
10
0
0
0
0
0
0
11111111
10
1000
111
101
10
11111110
0
11111110
11111111
0
110
110
0
0
0
11111110
11111100
11111100
11111100
11111110
11
0
0
0
0
0
11111111
11111111
100
1011
1001
1010
1101
1000
111
111
110
1100
1010
111
0
0
0
11111111
11111100
11111111
11111111
0
0
0
0
0
0
0
11111111
1
110
1000
1011
1111
10000
1111
10000
10101
10011
1101
111
11111101
11111110
11111110
11111100
11111111
11111101
11111110
0
1
0
0
0
0
0
0
0
1
10
100
101
1010
101
1011
1000
10
1
0
0
11111100
10
11111101
11111111
11111111
10
1
0
11111110
11111111
0
0
0
0
0
11111111
0
11111110
0
0
0
0
11111111
11111011
11111100
11110111
11111001
11111101
11111101
11111111
0
0
0
100
0
0
0
0
0
0
0
0
0
0
0
0
0
11111101
11111110
0
11111001
11111010
11111001
11111011
11111101
11111111
11111110
100
11111111
1
11111111
10
1
0
1
1
0
0
0
0
0
0
0
11111111
11111110
0
11111111
11111110
11111111
11111011
11111011
11111011
11111101
11111101
11111101
11111110
11111110
11111011
0
10
0
0
1
0
0
0
0
0
0
0
11111110
11111101
11111101
11111101
11111011
11111011
11110111
11110101
11111101
0
11111110
11111101
11111110
11111101
11111011
11111110
1
1
1
10
0
0
0
0
0
0
0
11111111
11111110
11111101
11111101
11111011
11111011
11111100
11111100
11111111
1
0
11111101
11111101
1
11111110
0
110
101
10
1
0
0
0
0
0
0
0
0
0
0
11111110
11111111
11111101
11111011
11111100
11111110
11111101
11111011
11111100
10
11
0
0
0
0
1
1
0
0
0
0
0
0
0
0
0
0
0
0
11111111
0
11111111
0
0
0
11111111
11111111
11111111
11111111
11111111
1
0
11111111
0
0
0
0
0
0
0
0
0
0
0
0
0
0
0
0
0
0
0
0
0
0
0
0
0
0
0
0
0
0
0
0
0
0
0
0
