0
0
0
0
0
0
0
0
0
0
0
0
0
0
0
0
0
0
0
0
0
0
0
0
0
0
0
0
0
0
0
0
0
0
0
0
0
0
0
0
0
0
0
0
10
1
0
0
0
0
0
0
0
0
0
0
0
0
0
0
0
0
0
0
0
0
1
1
1
10
10
1
10
0
0
0
0
0
0
0
0
0
0
0
0
0
0
0
0
0
0
1
10
10
11
101
101
1001
1100
111
1000
100
0
0
0
1
0
0
0
0
0
0
0
0
0
0
0
0
0
10
1
1
101
110
100
1
11
100
0
0
11111111
1
0
0
1
0
10
1
0
0
0
0
0
0
0
0
1
10
0
11111101
101
11
11111111
11111111
0
11
0
11
100
1
0
1
11111111
1
10
10
0
0
0
0
0
0
0
11111111
11111111
0
11111101
11111101
11111111
11111101
11111111
0
0
11111111
10
10
11
11111100
11111111
0
11111110
11111101
11111101
0
0
0
0
0
0
0
0
0
1
1
0
0
11111011
0
0
0
100
1
11111110
0
11111111
11111111
11111110
11111111
1
11111101
11111110
11111111
11111111
0
0
0
0
11111111
11111111
11111101
11111100
11111110
11111100
0
11111110
10
11111110
0
100
1
0
11111111
11111110
0
11111110
10
0
11111100
11111010
11111101
11111111
0
0
0
0
11111111
11111111
11111110
11111101
0
11111100
11111110
100
1
0
0
0
110
100
11111011
10
1
11111111
11111111
11111011
11111100
11111100
11111110
11111111
0
0
0
0
11111111
11111110
11111110
0
1
0
11111110
11111101
1
0
0
100
10
10
10
0
11111101
11111100
11111110
11111010
11111101
11111110
11111101
0
0
0
0
0
0
11111101
11111011
11111111
11111100
0
11111011
11111101
11111100
0
11
10
10
10
0
11111111
0
11111101
0
11111111
11111010
11111100
11111101
11111111
0
0
0
0
0
11111101
11111100
11111101
11110111
11111111
11111110
11111101
0
0
11111101
0
0
11111111
11111010
11111100
11111110
11111100
11111110
0
11111110
0
11111111
11111111
0
0
0
0
0
11111110
11111100
11111011
11111010
11111001
11111100
11111100
11111010
11111100
11111111
11111110
11111110
0
11111110
0
11111100
11111001
11111101
11111111
1
10
0
0
0
0
0
0
0
11111111
11111010
11111100
11111100
11111001
11111101
11111100
11111110
11111010
11111101
11110111
11111111
11111111
11111110
11
11111101
11111110
0
11111111
1
1
1
0
0
0
0
0
0
0
11111111
11111101
11111111
11111111
11111110
11111101
11111101
11111100
11111101
11111001
11111101
0
11111111
11111111
10
11
0
11111111
1
11
110
1
0
0
0
0
0
1
1
0
0
11111111
11111100
11111110
0
11111011
11111010
0
11111101
11111100
11111101
0
110
101
10
0
11
100
110
1
0
0
0
0
1
11
11
0
10
11
11111110
11111111
11111011
11111011
11111000
11111000
11111110
0
100
0
110
11
0
0
10
0
11
0
0
0
0
0
10
110
100
10
100
100
100
1
11111110
11111101
11111100
11111011
1
101
1001
100
1001
1
111
1010
101
1
10
0
0
0
0
0
11
101
11
1000
1001
1001
1000
1001
1100
1110
100
100
0
1
10
100
11
111
1011
1010
11
1
1
0
0
0
0
0
11
111
111
1000
1000
111
1000
1010
111
1011
111
110
11111110
10
10
11
10
101
101
1
0
10
1
0
0
0
0
0
11
100
0
10
10
1
1
100
10
1
10
101
10
10
11111111
1
10
1
11111111
1
1
1
0
0
0
0
0
0
1
0
11111111
0
0
10
0
1
1
1
0
1
100
11
11111111
11111101
11111111
0
0
10
11
0
0
0
0
0
0
0
0
11111111
11111111
11111110
11111100
11111110
0
1
1
0
0
0
10
10
10
10
0
100
10
11
10
0
0
0
0
0
0
0
0
11111111
11111111
11111101
11111101
0
0
11111110
11111111
10
1
1
1
111
100
10
11
101
1
1
0
0
0
0
0
0
0
0
0
0
0
0
0
11111110
11111011
11111101
11111110
11111011
11111100
11111010
11111100
11111101
11111101
11111111
0
0
11111111
0
0
0
0
0
0
0
0
0
0
0
0
0
0
0
11111111
0
0
0
11111110
11111101
11111110
11111111
11111110
11111111
0
0
11111111
0
0
0
0
0
0
0
0
0
0
0
0
0
0
0
0
0
0
0
0
0
0
0
0
0
0
0
0
0
0
0
0
0
0
