0
0
0
0
0
0
0
0
0
0
0
0
0
0
0
0
0
0
0
0
0
0
0
0
0
0
0
0
0
0
0
0
0
0
0
0
0
0
0
0
0
0
0
1
0
0
0
0
0
0
0
0
0
0
0
0
0
0
0
0
0
0
0
0
0
0
0
0
0
11111111
11111111
1
0
11111111
0
1
0
0
0
0
11111111
0
0
0
0
0
0
0
0
0
0
0
11111111
11111110
11111110
11111110
0
11111111
11111100
0
11111110
11111101
0
10
0
0
1
0
11111111
0
0
0
0
0
0
0
0
0
0
0
11111101
11111011
11111000
11111011
11111101
0
11111110
11111101
11111110
11111100
11111110
11111111
0
11111111
11111111
100
11
1
0
0
0
0
0
0
0
0
0
11111111
11111011
11111000
11111001
11111111
11
101
1
11
1
100
11111100
11111101
11111110
11111101
0
10
1
0
0
0
0
0
0
0
0
0
11111110
11111010
11111010
11111010
0
11
1
0
0
11111111
10
111
1
1
10
11111101
11111111
100
101
11
1
0
0
0
0
0
0
11111111
11111100
11111010
11111010
11111110
100
11
1
11111110
100
11111100
11111110
11111101
11111011
0
1
11111110
0
11
1
101
10
0
0
0
0
0
0
11111110
11111101
11111010
11111000
11111011
11111101
10
110
101
110
11111110
11111110
11111100
0
11111111
11111111
1
100
100
110
110
10
0
0
0
0
0
0
11111110
11111110
11111100
11111010
11111001
1
11
11111111
0
11
11111110
1
11
11111111
11111101
1
10
1000
11
101
101
1
0
0
0
0
0
0
11111111
11111011
11111100
11111011
11111000
11111111
0
10
0
11
0
111
0
11111111
0
0
1
100
0
101
111
1
0
0
0
0
0
0
11111111
11111011
11111101
11111111
11111001
11110110
11111100
11111101
1
100
11111111
111
110
1000
11
11111101
11111110
0
11
100
100
10
0
0
0
0
0
0
11111101
11111010
0
11111100
11111110
11111101
0
1
110
1000
100
10
11111111
1
11111111
11111111
11110111
11111001
11111011
11111101
0
0
0
0
0
0
0
1
11111101
11111010
11111110
11111111
0
11111101
11111111
10
11
10
0
11111101
0
11110011
11111100
11111101
11111001
11110110
11111000
11111011
11111111
0
0
0
0
0
1
1
0
11111010
11111011
11111100
11111111
11111101
11111101
0
1
100
10
0
11111100
11111010
11111010
11111010
11111011
11111001
11111001
11111101
11111111
0
0
0
0
0
0
1
10
1
11111101
11111101
11111110
0
11111110
11
100
110
0
1
11111100
11111110
11111011
11111101
11111100
11111011
11111100
11111101
11111111
0
0
0
0
0
11111111
11
101
10
11111100
11111111
11111011
11111001
0
0
1
0
11111111
11111111
11111110
11111110
0
11111101
11111011
11111011
11111011
11111101
11111101
11111111
0
0
0
0
0
11
11
11
0
11111101
11111101
11111011
11111100
11111000
11110111
0
11111101
11111110
10
11
1
11111101
11110111
11111011
11111101
11111110
11111111
0
0
0
0
0
11111110
1
1
0
10
1
0
11111101
11111110
11111100
10
100
0
1
11111111
10
11111110
11111100
11110110
11111001
11111110
0
0
0
0
0
0
0
11111101
0
0
1
11
100
11111101
0
0
11111110
100
10
100
110
0
11
0
11111000
11110100
11111001
11111110
0
1
0
0
0
0
0
11111100
11111110
10
10
11111111
101
1
1
1
11111101
11111111
11111111
11111101
10
101
1
0
11110101
11110111
11111011
11111101
11111111
0
0
0
0
0
0
0
11111111
0
10
1
0
0
10
11
11111101
11111010
11111101
11111110
11111110
10
11111111
11111100
11110111
11111001
11111100
11111111
0
0
0
0
0
0
0
0
11111111
11111101
0
10
11
100
0
0
11111111
0
1
0
11111101
0
11111101
11111011
11110111
11111011
11111110
0
0
0
0
0
0
0
0
0
11111111
10
0
0
11
11111101
11111110
11111111
10
0
1
11111111
11111111
0
11111011
11111011
11111011
11111101
11111111
0
0
0
0
0
0
0
0
0
0
0
11111011
0
0
0
0
11111010
11111101
11111100
11111001
11111011
11111110
11111111
11111111
11111100
11111100
11111100
11111111
0
0
0
0
0
0
0
0
0
11111111
11111111
11111101
11111110
11111111
0
11111111
11111111
11111110
11111101
11111100
11111111
11
0
0
10
0
0
0
0
0
0
0
0
0
0
0
0
0
0
0
0
0
0
0
1
10
0
1
11
11
1
0
0
0
0
0
0
0
0
0
0
0
0
0
0
0
0
0
0
0
0
0
0
0
0
0
1
0
0
0
0
0
0
0
0
0
0
0
0
