0
0
0
0
0
0
0
0
0
0
0
0
0
0
0
0
0
0
0
0
0
0
0
0
0
0
0
0
0
0
0
0
0
0
0
0
0
0
0
0
0
0
0
0
0
0
0
0
0
0
0
0
0
0
0
0
0
0
0
0
0
0
0
0
0
11111111
11111111
11111110
11111111
11111111
11111111
0
0
11111111
11111111
0
0
0
0
0
0
0
0
0
0
0
0
0
0
0
0
0
11111110
11111101
11111101
11111100
11111100
11111011
11111100
11111100
11111101
0
1
0
11111111
0
0
0
0
0
0
0
0
0
0
0
0
0
1
0
11111110
11111100
11111111
11111101
11111011
11110111
11110100
11111000
11111001
11111000
11111111
11111111
11111110
1
1
1
0
11111111
0
0
0
0
0
0
0
10
11
100
1
11111110
11111100
0
11111111
11111001
11111100
11111111
11111101
11111101
11111110
11111100
11111100
11111010
11111011
0
0
0
0
0
0
0
0
1
1
10
110
110
101
10
0
100
0
0
11111100
10
0
1
11111110
11111111
11111111
10
0
11111110
11111111
11111111
0
0
0
0
0
11
0
11111111
110
11
0
101
0
11111111
0
111
1
11111011
1
0
11111100
11111111
1
11111101
11111101
0
0
0
1
0
0
0
0
10
0
0
11111111
0
0
100
1
111
11
11111110
11111111
0
11111111
11111111
0
11111111
11111011
11111010
11111110
11111110
0
11111111
0
0
0
0
0
11
0
0
0
0
11111110
11
10
110
111
100
110
10
11111101
11
10
1
11
11111101
11111110
11111001
11111110
11111101
11111111
1
0
0
0
100
0
1
1
0
11111111
0
11111111
1
101
100
0
1
0
0
0
10
1
0
11111100
11111100
11111011
11111111
0
0
0
0
1
11
0
0
0
10
10
1
1
101
10
11111100
11111111
11
1
110
11
11111101
11
1
0
11111101
11111001
11111101
11111111
0
0
0
1
0
11111110
11111100
11111110
10
10
11111111
110
1
0
0
0
1000
100
1
101
11111110
11111111
0
100
11111010
11111000
11111110
0
0
0
0
0
0
0
1
1
11
0
11111100
11
11111111
11111111
0
101
0
101
101
11
0
10
11
10
11111101
11111100
11111110
11111111
0
0
0
0
0
0
0
11111111
11
1
0
10
11111111
100
1
11111111
11
100
101
11
100
100
11
101
0
11111111
0
0
0
0
0
0
0
1
11
1
0
0
10
10
1
100
11111111
0
1001
0
1010
11
11111110
11
100
111
0
11111110
11111111
0
0
0
0
0
0
0
0
10
110
100
11111101
11111111
1
10
11111111
11111111
1
10
100
100
11
100
0
11
1
11111110
11111111
0
0
0
0
0
11111111
11111111
11111110
0
100
1
11111110
11
1
101
11
1
1100
100
1
1
1
0
1
0
1
11111101
0
0
0
0
0
0
11111110
11111111
11111101
11111101
11111011
0
11111011
11111100
11111111
10
1
0
10
0
0
11111110
1
0
10
11111110
11111100
11111100
0
0
0
0
0
0
11111111
11111111
11111101
11110111
11111000
11110110
11101111
11110000
11110011
11110011
11110011
11111010
11110110
0
11111011
11111100
0
0
0
11111010
11111010
11111101
0
0
0
0
0
0
11111111
11111101
11111000
11110101
11110110
11110011
11110101
11110001
11101111
11110000
11111000
11110101
11110101
11111101
11111001
11111101
11111101
11111101
11111011
11111010
11111101
11111111
0
0
0
0
0
0
0
11111110
11111010
11111001
11111001
11111110
0
0
1
11111110
11110110
11110110
11110101
11111101
11110110
11111011
11111011
11111100
11111100
11111100
11111111
11111111
0
0
0
0
0
0
0
0
11111110
11111111
11111111
1
0
10
11111110
0
11111010
11111100
11111010
11111000
11111001
11111100
11111010
11111101
11111100
0
11111111
0
0
0
0
0
0
0
0
10
1
11
10
0
11111100
11111101
0
11111010
11111110
11111110
11111000
11110011
11111100
11111010
11111000
11111001
11111111
0
11111111
0
0
0
0
0
0
0
0
110
111
1001
100
11
0
0
0
11111001
11111010
11111010
11111100
11111101
0
11111001
11111000
0
11
0
0
0
0
0
0
0
0
0
0
11
111
101
100
0
10
1
110
10
11111111
1
10
1
11111101
11111100
11111110
0
10
1
0
0
0
0
0
0
0
0
0
0
0
10
11
1
1
1
1
0
100
1010
110
11
0
0
1
1
1
1
0
0
0
0
0
0
0
0
0
0
0
0
0
0
0
0
0
0
0
0
0
0
0
0
0
0
0
0
0
0
0
0
0
