0
0
0
0
0
0
0
0
0
0
0
0
0
0
0
0
0
0
0
0
0
0
0
0
0
0
0
0
0
0
0
0
0
0
0
0
0
0
0
0
0
0
0
11111111
0
0
0
0
0
0
0
0
0
0
0
0
0
0
0
0
0
0
0
0
0
0
0
0
0
0
0
11111111
0
0
0
0
0
0
0
0
0
0
0
0
0
0
0
0
0
0
0
0
0
0
0
1
0
1
101
100
1
0
0
0
0
1
1
0
0
0
0
0
0
0
0
0
0
0
1
1
0
11111111
0
0
11
110
100
0
0
11111111
11111111
100
11
10
1
0
0
0
0
0
0
0
0
0
0
11111111
0
0
0
11111101
11111111
11111110
0
11111010
1
0
0
10
11111110
11111101
0
0
0
1
0
11111111
0
0
0
0
0
0
0
0
1
10
1
11111110
11110101
11110011
11110110
11111010
11111100
11111100
11111111
11111011
11110111
11111011
11111011
11111101
0
11
0
0
0
0
0
0
0
0
1
10
0
1
11111100
11111110
11111000
11111100
11111010
11111001
11111001
11111011
11111100
11111011
11110110
11110111
11110110
11111010
0
1
11
10
1
0
0
0
0
0
0
1
11111111
11111110
11110111
0
11111111
11110110
11110110
11111001
11111000
0
11111010
11111011
11111010
11111001
11111111
11111100
11111110
11
1
11
0
0
0
0
0
0
11111111
11111110
11111011
11111000
11111011
0
11111000
11110111
11110110
11110100
11111001
11111101
0
0
11111111
0
110
101
11111110
0
0
0
11111111
0
0
0
0
0
11111010
11111111
11111010
11111101
11111100
11111111
11111011
11111001
11111100
11110101
11111011
100
0
10
11
0
100
0
10
11111101
0
11111111
0
0
0
0
0
0
11111001
0
11111011
11111100
11
11
10
0
11111101
11111010
0
0
100
11111110
11111100
0
0
11111100
11111110
11111110
11111100
11111110
11111111
0
0
0
0
1
11111000
11111111
11111110
11111111
110
1
1010
1000
110
110
1
11111100
10
11111100
11111101
0
11111111
11111100
0
11111111
0
0
0
0
0
0
0
1
11111100
1
100
0
1
11
101
111
1101
101
11111000
0
1
0
10
101
0
101
110
100
10
0
0
0
0
0
0
1
0
1001
11
110
100
111
0
100
1111
1
11111100
1
11
1
11111110
100
1
10
101
10
11
1
0
0
0
0
0
1
1
100
1
11
10
110
0
0
101
0
11
101
100
100
0
11
11111111
1
110
11
11
11
1
0
0
0
0
1
0
11
1
10
11
1
0
0
11
11111110
1
1010
101
1000
1001
1001
101
101
100
101
11
11
0
0
0
0
0
1
11
100
100
100
100
101
11111110
1
11111100
0
1
101
110
11
111
0
10
101
11
10
11111110
0
0
0
0
0
0
1
100
101
11
0
11
0
11111010
11111111
101
0
100
1
11
10
1
11111111
10
100
0
0
11111111
11111110
0
0
0
0
0
0
10
100
0
0
0
1
11111011
0
0
10
101
1
10
101
11
11111001
0
0
11111101
11111011
11111110
11111110
0
0
0
0
0
0
0
0
11111110
11111111
11111111
10
0
1
100
1
11
10
1
0
0
11111000
0
11111111
11111100
11111011
11111011
11111100
0
0
0
0
0
0
0
0
11111101
11111010
11111110
11111101
11111101
11
0
11111110
11111100
11111101
0
1
11111111
0
11111101
0
11111111
11111100
11111010
11111111
0
0
0
0
0
0
0
11111111
11111011
11111011
11111001
11111100
11111110
0
11111100
0
11111100
1
1
11111101
11111101
10
11111101
10
11111111
11111001
11111011
11111111
0
0
0
0
0
0
0
11111110
11111101
11111010
11111100
11111111
11111101
11111001
11111100
11111011
11111110
11111010
11111001
11110110
11111111
11111100
11111100
0
11111100
11111100
11111100
0
0
0
0
0
0
0
11111111
11111111
11111100
11111011
11111001
11111010
11111000
11111110
11111111
11111010
0
11111111
0
11111101
11111111
11111110
11111110
11111111
11111110
11111110
0
0
0
0
0
0
0
0
0
11111111
11111100
11111011
11111001
11111000
11111000
11111011
11111000
11110111
11110110
11111101
11111010
11111010
11111001
11111001
11111101
11111101
11111111
0
0
0
0
0
0
0
0
0
0
11111111
11111101
11111101
11111111
11111101
11111010
11111010
11110111
11111000
11110110
11111000
11111010
11111010
11111001
11111001
11111011
11111101
11111111
0
0
0
0
0
0
0
0
0
0
0
0
0
0
0
0
0
11111111
0
11111111
0
0
0
11111111
0
0
0
0
0
0
0
0
0
