0
0
0
0
0
0
0
0
0
0
0
0
0
0
0
0
0
0
0
0
0
0
0
0
0
0
0
0
0
0
0
0
0
0
0
0
0
0
0
0
0
0
0
0
0
0
0
0
0
0
0
0
0
0
0
0
0
0
0
0
0
0
0
0
0
0
0
0
0
10
1
1
1
0
0
11111111
0
0
0
0
0
0
0
0
0
0
0
0
0
0
0
0
11111111
0
0
0
0
1
10
0
10
1
11111111
0
0
10
1
1
0
0
0
0
0
0
0
0
0
11111111
11111111
11111110
11111110
11111111
11111101
11111100
0
0
0
1
101
1
11111111
1
0
10
1
11111111
11111110
11111110
0
0
0
0
0
0
0
11111111
11111111
11111111
11111111
11111111
11111001
11111110
0
1
0
0
0
1
1
0
11111111
0
11111111
11111111
11111111
0
0
0
0
0
0
0
11111111
11111110
11111110
0
11111111
11111100
11111001
11111111
10
10
11111111
100
1
11111110
11111111
0
0
0
1
11111111
11111111
0
0
0
0
0
0
0
11111111
11111110
11111101
11111101
11111100
11111110
1
11111111
10
10
0
0
1
11111111
11111110
11111111
10
1
1
1
0
11111111
11111111
0
0
0
0
0
11111111
11111110
0
0
0
11111111
0
0
101
101
0
11111111
11111101
1
0
1
0
1
1
10
11111111
11111101
0
0
0
0
0
0
11111110
11111101
11111100
11111110
11111101
11111111
0
11111110
11
10
11
110
1
11111011
11111110
11111111
11111110
1
10
11
11111110
11111101
0
0
0
0
0
0
11111111
11111100
11111110
11111110
11111101
0
11111111
11111111
11
0
110
1001
0
11111101
11111101
11111110
11111101
0
11111111
11111111
11111011
11111011
11111111
0
0
0
0
0
11111111
0
1
1
11111101
0
10
1
10
10
101
1
110
11111100
11111100
11111100
11111110
11111111
11111110
11111011
11111011
11111100
11111111
0
0
0
0
0
0
1
11
1
0
1
11111110
0
0
11
0
110
111
0
11111110
11111110
0
1
1
1
0
11111111
0
0
0
0
0
0
0
0
0
11111101
11111110
0
0
0
1
10
11111110
1010
1000
0
0
0
0
11111110
11111111
1
0
0
0
0
0
0
0
0
0
0
11111101
11111001
11111101
0
0
0
1
10
11111111
110
111
11111100
11111111
0
11111010
11111000
11111101
11111111
0
0
0
0
0
0
0
0
0
0
11111100
11111011
1
11
0
0
11111111
10
110
100
101
11111010
11111010
11111001
11110111
11111000
11111011
11111110
11111111
0
0
0
0
0
0
0
0
11111110
11111110
0
11
11
0
0
11111111
1
100
0
11111101
11110101
11110101
11110100
11110110
11111001
11111011
11111110
11111110
1
0
0
0
0
0
0
11111111
11111101
11111011
11111101
0
10
100
1
10
10
1
11110111
11110001
11110000
11110111
11111001
11111011
11111100
11111101
11111011
11111110
1
0
0
0
0
0
0
11111110
11111100
11111100
11111100
0
1010
10
1
1
11111110
11111010
11110001
11110010
11111010
11111111
11111111
0
1
11111111
11111101
11111111
1
0
0
0
0
0
0
11111101
11111011
11111100
11111100
11111011
100
100
11111110
0
11111110
11111010
11110111
11111111
0
11111110
0
100
10
0
0
1
1
0
0
0
0
0
0
11111110
11111101
0
11111101
11111101
1
101
100
101
11111100
11111110
0
0
11
0
10
11
10
1
10
11
1
0
0
0
0
0
0
11111111
1
1
0
10
101
0
11
101
11111111
11111100
0
1
11111100
0
10
10
100
10
100
11
10
0
0
0
0
0
0
0
11
10
11
100
0
0
11111111
10
0
10
1
0
0
1
11111111
11
101
0
1
1
0
0
0
0
0
0
11111111
11111110
11111110
11111111
1
0
10
11111110
11111100
110
1
11111111
0
10
11111111
0
1
0
0
11111111
0
0
0
0
0
0
0
0
11111110
11111110
11111111
0
11111111
0
11111110
0
10
10
11111101
0
11
11111111
11111010
11111111
10
0
11111111
0
0
0
0
0
0
0
0
0
0
0
11111111
11111111
0
0
11111110
11111101
0
11111101
11111100
0
11111110
11111011
11111111
11111111
11111100
11111111
0
0
0
0
0
0
0
0
0
0
0
0
0
0
0
0
0
0
11111111
11111110
11111101
11111111
11111110
11111110
11111111
0
0
0
0
0
0
0
0
0
0
0
0
0
0
0
0
0
0
0
0
0
0
0
0
0
0
0
0
0
0
0
0
0
0
0
0
0
0
