0
0
0
0
0
0
0
0
0
0
0
0
0
0
0
0
0
0
0
0
0
0
0
0
0
0
0
0
0
0
0
0
0
0
0
0
0
0
0
0
0
0
0
0
1
0
0
0
0
0
0
0
0
0
0
0
0
0
0
0
0
0
0
0
0
0
0
0
0
0
11111110
11111110
0
0
0
0
0
0
0
0
0
0
0
0
0
0
0
0
0
0
0
0
0
0
0
0
0
11111110
11111100
11111110
11111111
1
0
11111111
1
11111111
0
0
0
0
0
0
0
0
0
0
0
0
0
0
11111111
0
1
10
1
10
11
11
1
1
10
1
0
1
0
0
0
0
0
0
0
0
0
0
0
0
0
1
11111101
11111111
1
110
10
1
1
11111101
11
100
100
101
100
100
100
1
1
0
0
0
0
0
0
0
1
0
0
11
10
100
101
1
0
1
11111111
11111110
10
10
0
10
10
10
101
100
101
10
1
0
0
0
0
1
0
0
11111110
0
10
1
11
1
11111111
0
0
0
1
10
11
0
0
0
1
1
11
10
0
0
0
0
0
0
11111111
0
11111110
11
10
10
1
0
100
10
0
11
111
110
11111111
1
0
0
10
0
0
1
1
0
0
0
0
0
0
0
11111111
110
100
10
11111111
11111110
11111110
0
100
0
101
1
1
10
1
11111110
0
0
10
11
0
0
0
0
0
0
10
11111111
11111101
11111110
11
0
110
0
0
10
100
100
10
11111110
10
11111110
11
10
10
1
100
10
1
0
0
0
0
0
0
0
11111011
11111011
1
0
0
11111100
11111110
10
11
0
11111111
11111011
1
11111111
11111100
0
11
101
111
100
1
0
0
0
0
0
11111101
11111101
0
10
11111110
0
0
11111010
1
101
101
11111111
0
11111110
11111011
11111100
0
0
0
10
110
100
1
0
0
0
0
0
11111011
11111110
1
11111111
11111111
11111111
11111110
0
0
111
0
11111111
0
11111100
11111111
11111111
11111110
11111001
11111110
0
11
11
1
0
0
0
0
0
11111101
11111101
11111110
11111011
11111011
11111111
0
1
100
11
11111101
11111110
11111010
11111110
11111100
11111111
11110111
11111010
11111001
1
100
0
0
0
0
0
0
0
0
0
11111101
11111110
11111100
0
11111101
11111110
1001
1001
0
11111000
11111011
11111001
11111111
11111101
11111001
11111110
11111101
11
101
1
0
0
0
0
0
0
0
11111110
11111010
11111110
0
101
11111111
11111110
1011
1000
11111100
11110110
11111001
11111101
11111110
11111110
11111100
11111111
11
101
100
1
0
0
0
0
0
11
10
1
11111111
10
0
1
0
111
10000
10
11110111
11110100
11111100
1
1
111
101
11
101
100
10
0
0
0
0
0
0
100
100
10
10
10
0
110
111
1010
1100
1
11110110
0
10
11111110
1
0
1
10
110
110
10
0
0
0
0
0
0
11
0
10
0
0
1
11
100
1
100
0
11111001
11111001
11111110
1
100
11111100
1
10
110
11
0
0
0
0
0
0
0
11
10
1
11
101
110
1001
111
110
1
0
11111001
11111100
11111010
11111011
0
0
101
10
100
11
11111110
11111111
0
0
0
0
0
10
10
10
11
1001
101
1
11
0
11111101
0
11111101
11111110
11111011
11111100
11111111
11
0
0
10
1
11111101
11111110
0
0
0
0
0
0
0
100
100
101
11111111
11111110
0
11
101
110
11111110
11111111
11111111
11111111
0
1
11111111
11
1
0
11111111
11111111
0
0
0
0
1
0
10
111
111
0
1
10
10
110
11
10
11
10
0
0
0
0
0
0
0
0
0
0
0
0
0
0
0
0
11
101
101
10
0
11111111
0
0
11
101
110
10
10
0
11111100
11111101
11111100
11111111
11111111
0
1
0
0
0
0
0
0
0
1
10
1
1
11
10
110
10
0
0
11111010
0
0
0
11111010
11111110
11111100
11111101
0
1
1
0
0
0
0
0
0
0
0
11111111
11111111
11111111
0
11111101
0
1
0
11111101
11111011
11111101
11111110
11111111
11111111
0
11111111
11111111
0
0
0
0
0
0
0
0
0
0
0
0
0
0
0
0
0
0
0
0
0
0
0
0
11111111
0
0
0
0
0
0
0
0
0
