0
0
0
0
0
0
0
0
0
0
0
0
0
0
0
0
0
0
0
0
0
0
0
0
0
0
0
0
0
0
0
0
0
0
0
0
0
0
0
0
0
0
0
0
0
0
0
0
0
0
0
0
0
0
0
0
0
0
0
0
0
0
0
0
0
0
0
0
1
10
1
0
0
11111111
11111111
11111110
11111111
11111111
0
0
0
0
0
0
0
0
0
0
0
0
0
1
11
11
11
11
1001
1000
101
101
1
11111111
11111100
11111011
11111101
11111100
11111110
11111110
11111111
0
0
0
0
0
0
0
0
1
1
10
1001
111
110
1
101
101
11
101
11
11111111
1
11111110
11111111
11111100
11111100
11111011
0
0
0
0
0
0
0
0
1
1
0
11
11
10
10
10
100
11
1
10
11
11111111
10
0
0
0
11111100
11111011
11111111
0
0
0
0
0
0
0
10
10
1
100
0
0
101
1000
100
1010
1
100
0
11111100
10
11111110
0
0
11111111
11111011
11111110
0
0
0
0
0
0
1
10
10
1
100
0
0
0
111
101
10
101
0
0
11111101
11111110
11111111
11111110
11111111
11111110
11111101
11111110
0
0
0
0
0
0
1
11
1
11111111
1
11111111
1
100
11111100
11111111
11111110
1
101
0
100
0
11111101
0
11111110
11111101
11111101
11111101
11111111
0
0
0
0
0
0
0
11111110
11111010
11111011
11111000
11110110
11110000
11101100
11110000
11110011
11111111
1
11111111
0
0
11111101
11111111
11111111
11111111
11111110
11111100
0
0
0
0
0
0
0
11111011
11110111
11110110
11101110
11101000
11101000
11101100
11110001
11110111
11111110
0
1
1
11
10
0
0
0
11111110
11111110
11111100
11111111
0
0
0
0
0
0
11111010
11110110
11110101
11110010
11110000
11110111
11111100
10
1001
11111111
11
1
11111110
11111110
11111101
0
1
11111010
11111101
0
11111111
0
0
0
0
0
0
0
11111100
11111000
11110111
11111010
0
0
1000
111
111
0
11
0
10
11111001
0
11111101
11111011
11111101
11111111
11111110
1
1
0
0
0
0
0
0
11111111
11111111
0
11
1000
101
111
0
0
10
11
11111101
11111111
0
11
11111110
11111111
0
11111100
11111101
0
1
0
0
0
0
0
0
1
10
1000
111
100
0
0
0
0
11111110
11
0
11111111
11111110
11111111
11111011
11111111
1
11111010
11111011
11111111
1
1
0
0
0
0
0
11
100
101
10
11111001
0
11111100
11111110
11111111
11111111
11111110
1
11
11111100
11111101
11111111
11111111
0
11111011
11111101
0
1
1
0
0
0
0
1
100
1
10
100
11111111
1
11111111
0
0
11111100
11
11111100
11111110
11111111
11111111
11111111
1
0
11111101
11111111
0
10
1
0
0
0
0
1
10
1
0
11111101
0
11111100
11111110
11111111
11111110
10
11
0
0
1
0
0
11111110
0
1
0
1
10
0
0
0
0
0
10
0
0
0
11111101
0
0
11111111
11111110
11111011
11
0
10
11111111
0
0
0
11111111
11
100
0
11
10
0
0
0
0
0
10
0
0
11111111
0
11111110
11111101
11111111
11111111
1
100
1
0
0
11
100
0
1
11
11
0
1
10
0
0
0
0
0
10
10
11111110
11111101
11111111
1
10
0
1
10
1
10
1
1
11111110
111
101
100
100
0
11111101
0
0
0
0
0
0
0
0
1
0
0
1
11111111
11111101
10
1
0
0
0
11111101
11111111
11111101
0
101
11
0
11111111
0
1
0
0
0
0
0
0
0
0
1
11
111
0
11111110
1
0
11111111
10
1
1
11111101
11111010
11111011
11111110
11
1
0
0
0
0
0
0
0
0
0
1
0
11111111
0
11
0
1
1
11
0
0
0
11111111
0
11111011
11111011
11111010
11111110
0
10
0
0
0
0
0
0
0
0
0
0
0
11
11
1
1
11
100
11111110
1
110
11111111
11111111
11111111
11111101
11111110
0
10
1
0
0
0
0
0
0
0
0
0
0
0
1
1
1
1
10
0
10
11
10
11111110
11111110
11111110
11111111
0
11111111
0
0
0
0
0
0
0
0
0
0
0
0
0
0
0
1
1
10
1
1
0
11111111
11111111
11111111
0
0
0
0
0
0
0
0
0
0
0
0
0
0
0
0
0
0
0
0
0
0
0
0
0
0
0
0
0
0
0
0
0
0
0
0
0
0
0
