0
0
0
0
0
0
0
0
0
0
0
0
0
0
0
0
0
0
0
0
0
0
0
0
0
0
0
0
0
0
0
0
0
0
0
0
0
0
0
0
0
0
0
0
11111111
0
0
0
0
0
0
0
0
0
0
0
0
0
0
0
0
0
0
0
0
0
0
0
0
0
0
0
11111111
0
0
0
0
0
0
0
0
0
0
0
0
0
0
0
0
0
0
0
0
1
1
1
10
11111101
11111001
11111011
11111011
11111100
11111101
11111111
0
11111110
11111111
11111111
11111110
0
0
0
0
0
0
0
0
0
0
0
0
0
11111110
0
0
11111111
11111110
0
10
1
11111111
10
1
0
11111110
11111111
11111111
0
0
0
0
0
0
0
0
0
11111111
11111111
11111101
11111101
11111011
11111001
11111010
11111101
11111100
11111011
11111010
11111000
11111001
11111110
10
0
0
0
11111111
0
0
0
0
0
0
0
0
1
10
0
11111111
11111111
11111011
11111010
11111101
11111110
11111110
11111100
11111011
0
0
11111111
0
0
0
0
11
0
0
0
0
0
0
0
11111111
0
10
10
11111111
11111111
11111111
11111111
0
11111111
1
1
101
101
100
11111111
1
10
0
11111111
11111010
11111101
0
0
0
0
0
0
11111110
1
0
1
1
1
11111100
11111101
0
0
110
110
101
1100
111
10
100
11
1
1
10
0
0
0
0
0
0
0
0
0
1
0
10
100
0
11111110
11111100
1
1000
110
1001
1100
1101
1010
111
10
11
11111110
100
10
0
0
0
0
0
0
10
11111111
0
0
0
10
10
11111110
11111111
0
11111110
100
1000
11
1001
1100
1
101
10
11111110
10
100
1
0
0
0
0
0
1
0
11111110
0
11
11111101
11111111
0
11111001
11111101
11111101
11111011
11111010
11110110
11111010
11111001
11111000
0
11111111
11111110
11111101
1
0
0
0
0
0
0
11
11111111
11111110
11
0
11111111
10
10
11111101
1
0
11111111
11110110
11110011
11110110
11110111
11111010
11111000
11111011
11111001
11111010
0
0
0
0
0
0
0
11
10
0
10
11111111
0
11111111
11111011
11111110
0
110
0
1
0
11111011
11111111
11111101
11111110
11111010
11111010
11111100
0
0
0
0
0
0
0
10
11111111
0
0
11111110
0
0
0
0
11111111
11111111
0
10
11111111
0
100
1
11111111
11111101
11111111
11111111
0
0
0
0
0
0
0
11111111
11111110
11
10
0
10
0
11
1
11111111
11111110
0
11111111
11111110
0
0
0
11111110
11111101
0
11111100
11111101
11111111
0
0
0
0
11111111
11111110
0
10
1
11
10
11111111
1
11111110
11
11111010
11111010
0
11111100
0
1
11111110
11111101
11111111
11111100
11111011
11111011
0
0
0
0
0
11111100
11111011
0
11111111
11
11111110
0
1
0
1
11
0
1
11
0
101
11111110
10
0
101
0
0
11111111
1
0
0
0
0
11111010
11111000
11111100
11111010
0
11111101
0
0
11111110
111
101
0
11111011
11111010
11111111
11111111
0
0
11111000
11111110
0
11111101
0
10
0
0
0
0
11111100
11111000
11111110
11111101
11111101
11111110
0
0
0
1
110
11111111
11111100
11111101
11111110
11111101
11111111
11111100
11111011
11111111
0
0
1
0
0
0
0
0
11111100
11110111
0
11111111
11111100
11111010
11111100
11111111
1
11
11
0
11111111
11111011
11111111
11111101
11111111
11111101
11111100
0
10
10
10
0
0
0
0
11111111
11111011
11111001
11111011
11111011
11111101
11111101
0
1
11111100
0
11
10
11111111
11111010
11111010
11111110
0
100
11111111
0
1
11
1
0
0
0
0
0
0
11111110
11111110
11111100
11111110
11111111
11111111
100
11111111
10
0
10
1
11111111
0
11111100
0
0
11111110
0
1
11
1
0
0
0
0
0
0
0
0
11111110
1
10
10
11
0
0
11111111
11111110
11111110
0
11111100
11111001
0
0
0
10
1
1
0
0
0
0
0
0
0
11111111
0
11111100
11111111
11111111
11111101
11111101
11111111
11111100
0
0
11
11111110
11111100
11111010
11111010
11111111
0
10
10
0
0
0
0
0
0
0
0
11111111
0
11111111
0
11
11
1
101
10
10
10
10
11111110
11111100
11111101
11111111
1
101
100
10
1
0
0
0
0
0
0
0
0
0
0
1
1
10
10
10
10
10
100
11
0
11111111
1
10
10
10
1
0
0
0
0
0
0
0
0
0
0
0
0
0
0
0
0
0
0
0
0
0
0
0
0
0
0
0
0
0
0
0
0
0
