0
0
0
0
0
0
0
0
0
0
0
0
0
0
0
0
0
0
0
0
0
0
0
0
0
0
0
0
0
0
0
0
0
0
0
0
0
0
0
0
0
0
0
0
0
0
0
0
0
0
0
0
0
0
0
0
0
0
0
0
0
0
0
0
0
0
0
0
0
0
0
0
0
0
0
0
0
0
0
0
0
0
0
0
0
0
0
0
0
0
0
0
11111111
0
0
0
11111111
11111111
11111110
11111110
11111110
11111110
11111110
0
0
0
0
0
0
0
0
0
0
0
0
0
0
0
0
11111111
11111111
0
11111111
11111111
0
0
0
0
1
11111111
0
0
0
11111111
0
0
0
0
0
0
0
0
0
0
0
0
0
11111111
1
100
101
10
10
11111010
11111000
11110101
11111010
0
0
10
10
0
0
0
11111111
11111111
0
0
0
0
0
0
0
0
0
10
1000
110
0
11111111
11111111
11110111
11110110
11110000
11111001
0
11
101
1
1
0
1
11111111
0
0
0
0
0
0
0
0
1
11
1000
100
1000
0
10
0
11111100
11110001
11110111
1
101
111
100
1
1
1
11111111
11111111
0
0
0
0
0
0
1
10
1
10
111
101
1
1001
11
100
11111010
11110001
11111011
11
11
101
1
11111111
10
1
0
11111101
11111111
11111110
11111111
0
0
0
11111111
1
101
11111110
1
10
0
1000
11
111
11110100
11110011
1
101
1
11
110
1
1
10
0
11111111
11111110
11111111
0
0
0
0
11111110
10
100
11111010
10
11
11111111
11
100
11
11110110
11110100
11
0
100
1
10
11111110
11111110
11111111
0
0
0
0
0
0
0
0
11111110
0
11
11111110
11111101
11111101
0
1
111
0
11110010
11110110
11
11
10
11111110
0
0
0
11111110
11111111
11111111
0
11111111
0
0
0
0
11111111
0
0
0
0
0
11111111
11111111
11
0
11110010
11110110
1
100
1
0
11111111
11111110
0
0
11111111
10
0
0
0
0
0
0
0
0
11111111
10
0
11
11111111
11111111
0
11111010
11110001
11111001
11111110
0
1
1
11111111
10
11
0
0
100
1
0
0
0
0
0
11111111
11111111
10
11111111
11111110
11111110
10
101
10
11110110
11111001
11111110
0
0
1
100
1001
101
10
0
11
1
0
0
0
0
0
0
0
11111111
0
1
101
11111100
11111110
11
11111100
11111001
11111100
1
0
0
10
11
0
11111111
0
0
0
11111101
0
0
0
0
0
0
0
0
0
0
10
1
0
0
11110111
11110111
11111110
11
1
1
0
11111111
0
0
1
11111011
0
0
0
0
0
0
0
0
0
10
11
1
11111101
11111101
11111110
11111011
11111011
11111000
1
10
11111011
0
11111110
11111111
11111100
11111110
11111110
11111011
11111101
11111110
0
0
0
0
0
0
0
10
10
0
11111111
11111110
11111011
11110101
11110111
1
1
10
11111011
11111101
11111111
0
11111101
11111001
11111111
11111101
11111111
0
0
0
0
0
0
0
0
0
11111111
0
11111101
11111010
11110111
11110101
11111110
11111111
11
10
11111111
11111110
10
11111111
11111101
0
1
11111101
0
0
0
0
0
0
0
0
0
11111111
11111101
11111101
0
11111010
11111001
11111011
0
101
100
0
11
0
10
10
11111101
0
0
11111110
0
0
0
0
0
0
0
0
11111111
11111110
11111100
11111110
0
11111110
11111100
11111111
101
0
1
1
0
11
11
11111111
11111111
1
0
11111111
1
1
0
0
0
0
0
0
11111111
11111111
11111101
11111110
1
1
0
11111110
0
11111111
0
1
1
0
11111101
11111110
0
0
1
0
1
10
1
0
0
0
0
0
0
11111111
11111110
11111101
0
11111110
11111111
11111111
11111111
10
10
10
0
11
0
10
0
0
10
0
0
1
1
0
0
0
0
0
0
0
11111111
11111110
11111100
11111100
11111110
11111100
0
11111111
100
10
1
11
11
101
0
11111110
0
0
0
0
0
0
0
0
0
0
0
0
11111110
11111101
11111101
11111110
11111110
11111101
0
0
0
0
0
10
0
100
11111111
11111101
11111101
11111111
0
0
0
0
0
0
0
0
0
0
11111110
11111110
11111111
11111111
11111101
11111010
11111010
11111011
11111100
11111101
0
11111101
11111100
0
0
11111111
11111110
0
0
0
0
0
0
0
0
0
0
0
0
0
0
0
0
0
0
0
1
0
0
0
0
0
0
0
0
0
0
0
0
0
0
