0
0
0
0
0
0
0
0
0
0
0
0
0
0
0
0
0
0
0
0
0
0
0
0
0
0
0
0
0
0
0
0
0
0
0
0
0
0
0
0
0
0
0
0
0
0
0
0
0
0
0
0
0
0
0
0
0
0
0
0
0
0
0
0
0
0
0
0
0
0
0
0
0
0
1
1
0
0
0
0
0
0
0
0
0
0
0
0
0
0
0
0
0
0
0
0
1
0
0
0
0
10
1
11111111
0
0
0
0
0
1
0
0
0
0
0
0
0
0
0
0
11
100
100
111
101
1
100
101
101
0
10
11111110
0
0
11111110
0
1
10
0
0
0
0
0
0
0
0
10
100
11
101
10
1010
111
111
110
11111011
1
101
11
11
100
1
10
0
1
10
0
0
0
0
0
0
0
1
11
111
101
101
101
10
110
100
110
1001
110
1001
100
100
101
10
0
0
10
10
0
0
0
0
0
1
0
0
11
101
110
10
100
0
110
1000
110
1011
1001
1
10
11111101
0
1
0
0
11111111
0
0
0
0
0
0
0
0
0
10
1
111
1000
100
1000
1001
110
1010
1001
110
11111110
11
100
11111111
1
0
0
0
10
11
1
0
0
0
1
1
1
101
101
110
1000
101
110
101
1
100
11111110
11111011
0
1
10
11111110
11111101
1
11
11
110
11
0
0
0
0
1
10
1
1000
11
10
0
1
11111110
11111100
11111101
11110101
11110001
11111100
11111110
0
1
0
11111111
0
11
10
10
1
0
0
0
0
1
1
1
100
0
11111110
11111100
11111110
0
11111000
11110101
11111000
11111110
11111111
1
11111101
0
11111101
11111111
0
11
11
10
10
0
0
0
0
1
11
0
0
11111011
11111100
11111110
11110110
11110110
11111000
11111011
11111101
11111110
0
0
11111101
0
0
11
1
10
0
10
10
0
0
0
0
0
0
11111100
11111010
11111101
11111010
11111101
11111010
11111000
11111010
11111101
11111110
11111110
0
0
11111110
0
10
11111111
11111110
11111111
11111111
1
1
0
0
0
0
0
11111110
11110111
11111100
11111101
11111001
11111001
11111000
11111010
11111001
11111111
11111110
1
1
11111110
0
11111111
10
11111101
11111010
11111011
11111110
0
0
0
0
0
0
0
11111110
11111011
11111101
0
0
11111111
11111110
11111101
11110110
11111001
10
0
11111111
0
11111111
0
11111101
11111110
11111011
11111100
11111111
11111111
11111111
0
0
0
0
0
10
11111111
11111011
11111110
11111101
0
11111111
11111100
11111110
11111011
11111110
11111101
11111101
0
11111110
11111010
11111110
11111011
11111111
1
0
11111110
11111111
0
0
0
0
1
100
11
0
11111110
11111101
11111110
11111110
10
11111111
11111011
11111110
10
11111101
0
11111010
11111011
11111110
11111010
11111111
0
0
11111111
0
0
0
0
0
1
100
1000
1001
100
11111111
11111001
11111110
11111110
11111010
11111011
0
11111111
11111100
0
11111111
11111100
1
11111110
1
0
11111111
0
0
0
0
0
0
0
11
1000
1010
1010
110
1
1
11111101
11111110
0
0
0
1
11
0
0
110
11
110
0
0
0
0
0
0
0
0
0
1
110
111
101
1001
100
111
1
0
10
11111011
0
0
11111110
11111011
11
111
110
110
1
0
0
0
0
0
0
0
0
0
0
1
11
10
1
11
110
0
10
10
11
0
10
1
101
110
110
11
10
0
0
0
0
0
0
0
0
0
11111111
0
101
0
0
0
111
10
1
111
11111110
11111110
100
1
1
10
0
10
11
1
0
0
0
0
0
0
0
0
11111111
0
0
11111110
11111111
1
100
0
10
1
11
111
10
1
11
1
11111111
10
10
0
0
0
0
0
0
0
0
0
0
1
10
1
11111101
0
11
101
101
0
0
0
11111100
0
0
0
11111111
0
0
0
0
0
0
0
0
0
0
0
0
1
1
11
0
1
10
101
100
1
10
111
101
11
1000
100
0
0
0
0
0
0
0
0
0
0
0
0
0
0
0
1
10
100
100
11
100
11
1
11
11
100
100
10
0
0
0
0
0
0
0
0
0
0
0
0
0
0
0
0
0
0
0
0
0
0
0
0
0
0
0
0
0
0
0
0
0
0
0
