0
0
0
0
0
0
0
0
0
0
0
0
0
0
0
0
0
0
0
0
0
0
0
0
0
0
0
0
0
0
0
0
0
0
0
0
0
0
0
0
0
0
0
0
0
0
0
0
0
0
0
0
0
0
0
0
0
0
0
0
0
0
0
0
0
0
0
0
0
1
0
11111111
0
0
11111111
11111110
11111111
11111111
11111111
0
0
0
0
0
0
0
0
0
0
0
0
0
0
1
0
0
11111111
11111101
11111001
11111011
0
11111111
0
11111111
11111110
11111101
11111101
11111110
0
0
0
0
0
0
0
0
0
0
1
11111111
0
10
100
10
10
1
11111110
11111111
11111111
11111101
0
0
11111110
11111101
11111110
11111110
0
0
0
0
0
0
0
0
0
0
0
0
0
11111110
11111110
0
110
11
0
10
11
11111101
11111110
11111011
11111010
11111111
11111110
0
11111111
11111111
0
0
0
0
0
0
11111111
0
11
1
0
11
1010
0
11111111
11111110
10
11111110
1
0
11111110
11111110
11111100
11111101
0
11111110
11111100
11111101
0
0
0
0
0
0
0
0
0
11
0
1
101
1
0
0
0
11111100
11111101
11111111
0
0
110
1
0
11111100
11111010
11111100
0
0
0
0
0
0
1
0
0
1
0
11111110
101
0
0
11
1010
0
11111100
0
11111110
11111111
1
11111111
11111111
11111110
11111010
11111101
0
0
0
0
0
0
10
100
11111110
0
11111111
0
1
11111111
1
100
101
100
1
100
11111100
11111010
11111111
11111101
11111111
0
11111100
11111111
1
1
0
0
0
11111110
11111111
101
10
110
111
11
111
11
11111101
11111111
11111100
11
11
1
0
11111110
11111010
11111110
11111111
0
0
1
0
0
0
0
0
11111110
11111110
1
1
101
101
0
0
1001
11111100
11111010
0
11111110
11111101
11111110
11111111
0
11111111
11111110
11111110
11111101
11111111
0
11111111
0
0
0
0
11111110
11111110
11111011
11111010
11111101
1
11111011
11110010
11110010
11110000
11110001
11111110
11111110
11111101
11111111
11111110
0
11111110
0
11111101
11111010
0
10
0
0
0
0
0
11111101
11111001
11110111
11110100
11101011
11101011
11110000
11101111
11110101
11111010
0
0
11110110
11111110
0
11111010
11111110
0
11111110
11111110
1
10
10
0
0
0
0
0
11111101
11111000
11110100
11101101
11101111
11110001
11110101
11111001
11111111
101
10
11
11111001
11111100
11111110
11111100
0
11111100
0
1
11
1
1
11
0
0
0
0
11111110
11111010
11111001
11111000
0
100
101
110
100
11
1001
10
11111101
1
1
1
11111110
11111111
1
0
1
10
11
101
0
0
0
0
11111111
11111100
11111110
1
111
100
10
100
10
11111111
11
1
11111110
11
1
0
10
1
100
10
11
11
100
100
0
0
0
0
0
0
11
10
11111111
11
0
11
0
10
10
1
0
11111111
11111111
11111100
11111110
11111111
0
11111110
10
11
100
10
0
0
0
0
0
0
100
0
10
0
11111111
0
10
1
0
0
11111111
11111111
11111101
0
11111111
11111000
11111010
11111100
10
110
101
1
0
0
0
0
11111111
10
0
10
0
11111111
1
1
101
1
1001
11
1
0
11111100
11111100
11111101
11111101
11111101
0
0
1
11
0
0
0
0
0
10
11
0
11
11
101
11111111
0
100
11
100
11
11
100
10
11111110
11111111
11111111
11111111
0
10
0
0
0
0
0
0
10
11
100
100
10
0
11111110
11111110
10
0
11
0
0
0
100
1
10
0
0
1
11111110
1
1
1
0
0
0
0
1
0
11
111
1
1
101
11
1
0
11111111
11111011
0
0
0
1
0
1
11
11
10
0
0
0
0
0
0
0
0
11111110
0
11111111
0
0
11111111
100
0
10
101
11
0
11111111
0
11111111
11111111
0
1
10
1
0
0
0
0
0
0
0
0
11111111
0
0
0
11111100
11111111
0
0
0
0
11111111
0
11111111
11111111
11
11111110
1
1
1
0
0
1
0
0
0
0
0
0
0
0
0
0
0
11111111
11111110
11111011
11111001
0
11111010
11111111
1
10
0
11111100
11111101
11111111
11111110
11111111
0
0
0
0
0
0
0
0
0
0
11111110
11111110
0
0
11111111
11111100
11111101
11111101
11111101
11111111
0
11111111
11111110
11111111
0
11111110
11111110
0
0
0
0
0
0
0
0
0
0
0
0
0
0
0
0
0
0
0
0
0
0
0
0
0
0
11111111
0
11111111
0
0
0
0
0
