0
0
0
0
0
0
0
0
0
0
0
0
0
0
0
0
0
0
0
0
0
0
0
0
0
0
0
0
0
0
0
0
0
0
0
0
0
0
0
0
0
0
0
0
0
0
0
0
0
0
0
0
0
0
0
0
0
0
0
0
0
0
0
0
0
0
0
0
11111111
0
0
0
11111111
11111111
0
0
0
0
0
0
0
0
0
0
0
0
0
0
0
0
0
0
0
11111110
11111111
0
11111111
0
1
0
0
11111111
11111111
11111110
11111101
11111111
11111110
11111111
0
0
0
0
0
0
0
0
0
0
0
0
0
0
0
0
0
100
1
11111101
11111100
0
11111111
11111110
11111110
11111111
0
0
11111111
0
0
0
0
0
0
0
0
11111111
0
0
11111111
11111101
11111111
11111110
0
1
0
1
11111110
11111111
0
1
11111110
0
0
0
11111110
11111111
0
0
0
0
0
0
0
0
1
0
11111010
11111010
11111100
0
11111111
0
11111100
11111111
11111111
0
0
0
11111111
0
11
11
11111100
11111110
0
0
0
0
0
0
0
0
100
1
11111100
11111101
11111101
1
0
11111110
11111101
1
0
0
11111111
0
0
0
0
10
11111110
11111111
11111111
0
0
0
0
0
1
0
1
0
0
0
11111110
11111101
11111110
11111110
0
0
100
1
0
0
0
11111111
0
0
11111110
11111111
0
0
0
0
0
1
11
10
0
11111111
11111111
0
0
11111101
11111100
0
11111011
11111110
0
11111110
0
101
100
0
11111110
1
0
11111111
0
0
0
0
0
1
100
1
11111111
10
0
11111110
11111100
0
11111110
11111100
11111110
11111110
11111100
11111110
0
100
11
11
110
100
11111111
11111111
0
0
0
0
0
10
10
11111111
0
100
11111111
0
1
11111101
11111100
11111111
11111110
11111101
11110110
11110111
11111111
11
11
10
101
11
0
0
0
0
0
0
0
1
10
1
1
0
11111111
0
0
11111111
0
0
11111111
11110111
11110011
11111001
1
11
11111111
0
101
11
100
10
0
0
0
0
0
1
101
1
1
11
0
10
1
11111111
1
0
11111110
11110011
11101111
11111011
101
110
11111110
11
11
1
10
10
0
0
0
0
0
11111111
11111111
0
0
110
10
11111111
1
1
1
1
11111111
11110110
11110011
11111111
111
110
101
101
1
10
11
1
0
0
0
0
0
11111111
11111010
1
0
100
11111111
0
11
10
11111110
11111100
11111010
11110100
11110011
0
111
101
11
11111111
100
0
10
0
0
0
0
0
0
11111111
11111111
1
0
11
11111110
100
11
11111111
11110111
11110100
11111001
11111000
11111110
1001
111
10
0
1
10
11111111
0
0
0
0
0
0
0
11111110
0
11111111
0
10
10
101
11
11111100
11111000
11111001
11111110
0
11
110
10
1
0
11
10
11111110
0
0
0
0
0
0
0
11111101
11111111
11111110
11111111
0
1
11
0
11111000
11110101
11111001
11111111
1
10
11
100
0
0
1
1
11111111
11111111
0
0
0
0
0
0
11111100
0
0
0
0
100
100
11111101
11111011
11111100
11111101
1
10
10
101
1
0
11111110
1
0
11111111
11111111
0
0
0
0
0
0
11111110
0
1
10
100
1
11111101
1
0
0
0
11111101
1
110
10
11
10
0
1
11111110
11111110
0
0
0
0
0
0
0
0
0
11111111
11
1
11111101
11111001
1
1
10
1
0
0
100
11
0
1
10
1
0
0
0
0
0
0
0
0
0
11111111
0
0
11
10
1
10
0
0
11
0
11111101
0
10
100
10
1
10
10
1
0
0
0
0
0
0
0
0
11111111
11111111
11111111
1
100
11
11
1
0
0
11111101
11111111
0
1
10
1
0
0
0
0
0
0
0
0
0
0
0
0
0
0
0
0
11111111
0
10
0
1
1
0
1
0
11111111
11111111
11111111
11111110
11111111
11111111
0
11111111
11111111
0
0
0
0
0
0
0
0
0
0
0
0
0
11111111
0
0
11111110
0
11111111
11111111
11111111
0
0
11111111
0
0
11111111
0
0
0
0
0
0
0
0
0
0
0
0
0
1
0
0
0
0
1
1
0
1
0
0
0
0
0
0
0
0
0
0
0
0
0
0
0
0
0
0
0
0
0
0
0
0
1
1
0
0
0
0
0
0
0
0
0
0
0
0
