0
0
0
0
0
0
0
0
0
0
0
0
0
0
0
0
0
0
0
0
0
0
0
0
0
0
0
0
0
0
0
0
0
0
0
0
0
0
0
0
0
0
0
0
0
0
0
0
0
0
0
0
0
0
0
0
0
0
0
0
0
0
0
0
1
1
10
1
0
10
10
1
0
0
0
1
11
10
0
0
0
0
0
0
0
0
0
0
0
0
0
11111111
11111111
1
1
10
0
0
11111101
11111100
0
11111111
1
11
101
101
1
0
0
0
0
0
0
0
0
0
0
0
0
11111111
11111111
1
100
101
101
11111101
0
11111101
0
10
11111110
100
1
11111101
11111101
11111101
11111101
11111111
0
0
0
0
0
0
0
0
0
0
0
0
11
11111101
11111110
11111111
0
0
11
0
1
100
101
10
0
0
0
0
0
0
0
0
0
0
0
11111111
0
1
11111100
0
0
0
11111100
11111100
11111110
10
1
0
10
11111110
11111101
1
11111111
11111101
11111011
11111111
0
0
0
0
0
11111111
11111111
11111100
11111111
0
11111111
11111110
0
1
11111011
11111100
11111111
11111101
0
11111111
11111010
11111011
11111111
11111110
0
11111011
11111111
0
0
0
0
0
0
11111111
11111101
11111010
11111110
11111011
11111100
11111111
10
10
11111111
11111111
11111100
11111110
11111100
11111111
11111110
1
11111111
11111011
11111101
11111111
11111010
11111101
0
0
0
0
0
0
1
11111101
11111101
11111100
11111010
0
1
0
0
11111111
11111111
10
11111101
11111101
11111111
11111011
11111111
11111111
11111111
11111001
11111011
11111101
11111111
0
0
0
0
0
11
100
1
11111110
11111110
11111111
1
10
0
11111101
11111110
11111110
0
1
11111110
11111101
11111111
11111111
11111100
11111011
11111011
11111011
11111111
0
0
0
11111111
11111111
0
0
0
10
0
11111110
11111101
11111110
11111100
11111101
11111110
11111101
1
11111011
11111111
0
10
11111110
0
11111110
11111111
0
11111111
0
0
0
0
11111111
11111110
0
0
1
11111111
11111100
11111110
11111101
11111101
11111111
0
11111001
11111101
11111101
11111010
1
1
0
0
11111100
10
0
11111111
0
0
0
0
0
11111110
0
1
0
0
11111111
11111111
1
10
110
11111110
11111111
0
0
11111101
0
100
11111101
11111100
0
1
0
1
1
0
0
0
0
11111111
11111111
101
110
0
0
11111110
1
100
100
11
101
0
11111011
1
11111111
0
0
0
1
1
1
1
0
0
0
0
11
0
0
11
0
0
11111101
1
100
0
111
101
11
1
11111111
1
11111101
11111110
0
1
11111111
10
110
11
0
0
0
11111111
1
0
11111101
11111110
101
1
101
11
11
10
0
1
111
100
101
11
11111110
11111110
111
11
0
100
1010
100
0
0
0
11111111
0
0
11111110
0
11111110
111
11
1
11
1
11111110
0
111
0
0
1
0
1
1000
0
11111110
1
111
1
0
0
0
11111111
11111111
0
0
0
11
10
10
1
11111100
0
11111110
10
11
100
11111111
10
1
0
100
11
10
111
101
0
0
0
0
0
11111100
0
11111111
11111110
0
11
1000
11111110
11111001
11111110
11111011
11111011
111
1100
100
101
11
11
101
1010
111
101
100
1
0
0
0
0
11111110
0
0
11111110
110
110
110
11
1
11110100
11110100
11111001
11111111
111
11
100
10
10
100
101
101
10
0
0
0
0
0
0
11111111
11
1
0
1
11
11
101
11111110
11111000
11110111
11110111
11110101
11111101
0
11111011
11111110
0
1
11
111
10
0
0
0
0
0
0
0
10
11
11111111
0
11111110
100
111
0
0
0
11111001
11110011
11110101
11111001
11111010
11111101
11111110
11111110
11111111
11111111
11111111
0
0
0
0
0
0
0
1
0
11111110
11111101
11111011
11111110
1
11111110
11111101
11110111
11110110
11110110
11110111
11110110
11111100
11111110
11111101
11111101
11111101
11111110
11111110
0
0
0
0
0
0
0
0
0
11111110
11111101
11111110
11111111
0
11111110
11111100
11111001
11111001
11111001
11111001
11111011
11111101
11111011
11111010
11111100
11111100
11111100
11111111
0
0
0
0
0
0
0
0
0
0
11111111
11111110
11111101
11111111
0
0
11111110
11111110
11111111
11111110
11111110
11111010
11110111
11111010
11111101
11111111
11111111
11111111
0
0
0
0
0
0
0
0
0
0
0
0
11111111
0
0
0
11111111
0
0
0
0
0
0
11111111
11111111
0
0
0
0
0
0
0
0
0
0
0
0
0
0
0
0
0
0
0
0
0
0
0
0
0
0
0
0
0
0
0
0
0
0
