0
0
0
0
0
0
0
0
0
0
0
0
0
0
0
0
0
0
0
0
0
0
0
0
0
0
0
0
0
0
0
0
0
0
0
0
0
0
0
0
0
0
0
0
0
0
0
0
0
0
0
0
0
0
0
0
0
0
0
0
0
0
0
0
0
0
1
0
1
10
1
1
0
0
0
0
0
0
0
0
0
0
0
0
0
0
0
0
0
0
0
0
1
10
10
1
11
11
10
1
1
11111110
11111110
0
11111111
0
0
0
0
0
0
0
0
0
0
0
0
11111111
11111111
11111111
0
0
1
1
0
11111100
0
10
0
10
100
0
1
11111111
0
0
0
0
0
0
0
0
0
0
11111111
11111110
11111101
11111101
0
11111111
10
1
11111110
1
11111110
11111110
11111100
0
11
11111101
11111101
10
10
1
0
0
0
0
0
0
0
11111111
11111110
0
11111100
10
100
11111110
0
100
1
0
0
11111001
10
10
1
1
11111010
11111110
0
0
0
0
0
0
0
0
0
11111110
11111100
0
1
100
1
1
111
11
0
11111011
11111100
11111010
0
11111110
11111101
11111111
0
0
11111100
11111100
0
0
0
0
0
0
0
11111111
11111011
11111111
0
0
1
100
0
10
11111111
11110011
0
10
11111001
11111001
11111110
11111111
11111111
0
11111011
11111010
0
0
0
0
0
0
0
0
11111111
11111111
0
10
101
110
110
1010
11111101
11110010
11111011
100
11111110
0
11111111
11111011
0
11111111
11111001
11111110
10
1
0
0
0
0
0
0
1
10
11
1
100
100
111
100
11111010
11110010
11111001
0
11111100
1
0
0
11
0
11111111
0
100
100
0
0
0
0
0
0
0
0
100
11
0
10
111
11111111
11111011
11110111
11111101
0
101
110
110
1
10
100
1
11
11
0
0
0
0
0
0
0
11
11111111
11
11
110
100
11
0
11110111
11111001
11111100
0
11111110
1
0
1
1
11
100
101
0
0
0
0
0
0
0
0
110
100
0
110
100
11
11
11111100
11111001
11111100
11111011
11111110
0
0
11111101
11111111
11111100
10
10
0
1
1
0
0
0
0
0
0
110
11
110
1000
101
101
11
11111011
11111000
11111011
11111010
11111011
10
11
0
11111101
10
11111101
101
0
10
0
0
0
0
0
0
0
10
10
110
110
0
10
100
0
11111010
11111011
11110100
11110110
11111111
11111111
0
0
10
11
11111101
11111110
11111110
11111110
11111111
0
0
0
0
0
11111111
11
10
11
110
1
11111110
11111110
11111100
11111100
11111001
11111010
0
11111111
11111100
0
101
11
0
0
11111111
11111111
11111111
0
0
0
0
11111111
11111110
1
0
0
0
0
0
1
0
11111100
11111010
11110110
11111111
11111111
11
11111111
1
0
11111111
0
1
0
0
0
0
0
0
0
0
11111111
11111111
0
11111110
0
1
1
0
11111001
11110111
11110111
0
110
11
100
10
10
0
0
0
11111111
11111111
0
0
0
1
10
1
11111110
0
101
0
0
10
111
1
11111001
11111010
11111010
11
10
100
1
1
0
1
11111101
0
0
0
0
0
0
1
10
10
100
10
11111101
11111110
11111101
11111101
11111111
11111101
11110110
11111100
10
1000
1
11
0
11111100
11111101
10
11111111
0
1
0
0
0
0
0
11111111
1
110
1
11111111
11
11
10
11111110
11111101
11111000
11111011
110
110
11111111
0
0
10
10
10
11111111
10
1
0
0
0
0
0
0
0
100
11111101
11111110
11111111
11111110
11111111
11111111
11111100
11111000
11
11
100
1
10
11111111
11111101
0
11111111
0
1
1
0
0
0
0
0
0
0
10
1
0
11111111
11111101
11111010
11111111
11111110
11111110
110
101
110
100
11111101
11111110
0
10
0
1
10
0
0
0
0
0
0
0
0
0
1
0
0
0
11111110
0
0
11111011
11111111
1001
110
101
11
0
100
100
11
10
1
0
0
0
0
0
0
0
0
0
0
0
11111111
11111111
11111010
11111100
11111010
11111010
11111101
10
0
10
11
10
10
11
10
1
0
0
0
0
0
0
0
0
0
0
0
0
0
0
0
11111111
11111110
11111110
0
10
10
1
1
10
10
1
0
0
0
0
0
0
0
0
0
0
0
0
0
0
0
0
0
0
0
0
0
0
0
0
0
0
0
0
0
0
0
0
0
0
