0
0
0
0
0
0
0
0
0
0
0
0
0
0
0
0
0
0
0
0
0
0
0
0
0
0
0
0
0
0
0
0
0
0
0
0
0
0
0
0
0
0
0
0
0
0
0
0
0
0
0
0
0
0
0
0
0
0
0
0
0
0
0
0
0
0
0
0
0
0
0
0
0
0
0
0
0
0
0
0
0
0
0
0
0
0
0
0
0
0
0
1
10
10
10
10
10
100
11
0
0
0
0
10
0
10
10
10
0
0
0
0
0
0
0
0
0
0
0
0
0
10
0
10
0
11111110
0
11111101
11111111
0
11111111
10
0
0
1
10
1
0
0
0
0
0
0
0
0
11111111
11111111
11111110
1
10
0
10
11111101
11111011
0
0
11111110
10
11111110
10
11111101
11111111
1
11111111
0
1
0
0
0
0
0
0
0
11111110
11111100
1
111
100
0
1
11111101
0
11111101
10
11
0
11111110
11111111
11111011
11111100
0
0
0
10
1
0
0
0
0
11111111
0
11111111
0
1
10
10
1000
11
11111100
11111110
11111100
0
11111110
1
0
0
0
11111111
0
1
11
11
1
0
0
0
0
0
11111111
11111100
11111111
11111100
11111101
100
11
1
0
1
0
11111101
100
10
0
11111111
0
0
0
100
100
1
0
0
0
0
0
0
11111111
11111001
11111010
11111111
11111111
0
111
0
11111100
11111011
11111100
11
11
11111110
11111110
11111011
0
11111111
1
110
100
0
0
11111111
0
0
0
11111111
0
11111010
11111100
1
11111111
1
11111111
10
11111110
11101111
11110110
0
11111110
0
0
11111011
0
0
0
11
1
11111110
11111111
0
0
0
0
0
11111111
11111101
11111111
11111101
10
11111111
110
1110
111
11111100
11111101
11111100
1
10
11111111
11111110
11111110
10
100
101
11
0
0
0
0
0
11111111
1
1
10
10
1
0
11
1000
1011
1010
0
11110111
11111010
1
101
0
10
10
11
110
1000
11
11111111
0
0
0
0
11111111
1
10
11
1
110
11
10
110
1001
1110
100
11111001
11111110
11111100
11111011
11111100
11
10
101
100
1
0
11111111
11111111
0
0
0
0
1
11
111
1000
101
100
1000
1010
1010
1000
0
11111000
11111111
11111110
0
11111110
11111010
11111110
0
11111111
11111101
11111110
0
0
0
0
0
0
1
101
1001
1001
1100
1001
1010
111
1000
10
11111111
0
11111010
11111101
0
0
11111100
11111001
11111100
11111101
11
11111111
0
0
0
0
0
0
1
110
111
101
111
1011
111
110
10
11111010
11111110
0
11111110
11111110
0
11111110
11111101
11111101
11111100
0
0
11111100
0
0
0
0
0
0
0
11
10
1
100
11
101
1
11111100
11111111
11111110
10
11111110
11111110
1
0
10
11
11111011
11111101
11111011
11111101
11111111
11111111
0
0
0
0
11111111
0
0
1
10
11111110
0
0
11111110
0
11111111
0
11111011
0
10
11111110
0
1
11111100
11111110
11111110
11111110
0
0
0
0
0
0
0
0
0
11111110
11111111
11111111
11111101
11111101
11111100
0
11111100
11111111
0
0
11111100
0
10
10
1
0
1
0
0
0
0
0
0
0
11111111
11111110
0
11111110
11111111
11111110
0
100
11111101
0
1
11111110
1
11111101
11110111
0
1
0
0
11111111
0
0
1
0
0
0
0
0
11111111
11111111
1
11111110
11111101
11111101
11111111
11111111
0
11111111
0
11111110
0
0
11111110
11111101
11111100
11111101
0
1
0
0
0
0
0
0
0
0
0
11111110
0
0
11111100
11111101
11111111
1
11111011
11111110
11
0
11111111
1
1
11111111
11111100
11111111
11
11
0
0
0
0
0
0
0
0
0
11111110
11111110
0
11111111
100
11111101
11111111
0
0
11
0
0
11
0
0
0
11111111
11
1
1
0
0
0
0
0
0
0
0
0
0
0
1
10
11111111
0
100
11
11111111
11111100
11111110
11
1
101
100
10
0
0
1
0
0
0
0
0
0
0
0
0
0
1
1
11111111
11111101
0
11111111
11111010
0
1
1
10
100
11
11
11
1
0
0
0
0
0
0
0
0
0
0
0
0
0
0
11111111
11111111
0
1
0
0
0
11111111
0
0
0
0
0
1
0
0
0
0
0
0
0
0
0
0
0
0
0
0
0
0
0
0
0
0
0
0
0
0
0
0
0
0
0
0
0
0
0
0
