0
0
0
0
0
0
0
0
0
0
0
0
0
0
0
0
0
0
0
0
0
0
0
0
0
0
0
0
0
0
0
0
0
0
0
0
0
0
0
0
0
0
0
0
0
0
0
0
0
0
0
0
0
0
0
0
0
0
0
0
0
0
0
0
0
0
0
0
0
0
0
0
0
0
0
11111111
0
0
0
0
0
0
0
0
0
0
0
0
0
0
0
0
0
0
0
0
0
10
100
10
10
11
11111111
11111110
0
0
11111111
0
0
0
0
0
0
0
0
0
0
0
0
0
0
0
11111111
10
11
101
110
1010
100
10
1
0
11111110
11111111
0
11111111
11111111
0
0
0
0
0
0
0
0
0
0
11111110
11111110
0
11
100
101
111
111
1000
100
1
0
1
11111110
11111111
11111110
11111011
11111101
0
0
0
0
0
0
0
0
0
11111111
11111101
11111101
0
10
11
1
110
110
1001
1010
101
111
1
0
11
0
11111100
11111011
11111111
11111111
0
0
0
0
0
11111110
11111101
11111101
11111101
0
11111111
1
0
0
11
0
111
1110
1100
1011
111
100
11
1
11111111
11111110
11111111
11111111
0
0
0
0
0
11111101
11111011
11111111
11111111
1
11111101
11111100
11111101
11111101
11111010
11111011
0
1100
1010
1001
100
110
110
101
1
11111100
11111110
0
0
0
0
0
11111111
11111110
11111101
11111110
11111101
11111101
11111010
11111100
11111010
11111110
11111011
11110111
11111011
0
10
0
111
110
0
100
10
11111111
11111110
0
0
0
0
0
0
11111101
11111110
11111100
11111011
11111110
11111100
11111010
11111111
0
11111110
11111101
11111001
11111100
11111111
10
1
100
100
111
110
0
11111110
0
0
0
0
0
0
11111101
11111011
11111010
0
10
11111110
11111100
0
0
0
0
11111000
11111000
11111111
1
1
100
10
110
110
11
0
0
0
0
0
0
0
11111110
11111110
11111111
11111111
0
0
1
11111111
0
11111101
11111011
11111001
11111101
0
10
110
1
10
100
10
0
0
0
0
0
0
0
0
0
1
1
11111111
1
0
11
11111111
11111011
11111100
11111011
0
0
10
0
10
11111110
1
1
11111111
11111110
11111111
0
0
0
0
0
0
0
10
10
0
11111111
0
0
11111101
1
1
0
11
0
0
11111101
1
11
10
10
11111101
11111110
11111111
0
0
0
0
0
0
1
11
0
11111111
11111111
0
1
11111110
11111101
11111110
11111101
10
0
11111110
0
11111111
0
0
0
0
11111111
11111111
0
0
0
0
0
0
10
10
0
11111101
11111110
1
10
11111100
11111110
11111010
11111001
11111111
0
11111110
0
11111010
11111011
11111110
1
11111111
11111110
0
0
0
0
0
0
0
0
1
0
0
1
0
0
0
0
11111101
11111101
11111111
1
11111110
11111101
11111001
11111001
11111111
0
11111110
11111111
0
0
0
0
0
0
11111111
0
0
1
0
100
0
10
0
11111010
11111001
11111110
11111111
11111111
0
11111101
11110111
11111101
11111110
0
0
1
0
0
0
0
0
0
11111110
11111111
1
1
0
0
0
11
11111110
10
0
11111110
0
11111110
0
11111111
0
11111110
11111110
11111111
1
1
0
0
0
0
0
0
11111111
0
11
10
0
11111110
0
1
1
1
100
11111110
0
1
0
0
11111110
11111001
11111100
11111101
0
0
0
0
0
0
0
0
0
0
0
0
0
11111011
11111111
10
0
10
11
0
0
0
11111111
11111101
11111011
11111100
11111110
0
1
0
0
0
0
0
0
0
0
0
0
10
11
10
0
11
11111101
1
1
0
1
11111110
11111101
11111110
11111111
11111100
11111011
0
0
1
0
0
0
0
0
0
0
11111111
11111111
0
10
11
0
0
1
10
11
0
0
11111101
1
11111110
11111111
11111011
11111100
0
0
0
0
0
0
0
0
0
0
0
1
1
0
1
11111110
0
11111110
11
100
1
10
11111110
0
0
0
0
0
0
0
0
0
0
0
0
0
0
0
0
10
10
11
10
10
11
11
101
0
0
0
0
0
0
1
1
0
0
0
0
0
0
0
0
0
0
0
0
1
1
1
1
10
11
1
0
0
1
0
0
0
0
0
0
0
0
0
0
0
0
0
0
0
0
0
0
0
0
0
0
0
1
0
0
0
0
0
0
0
0
0
0
0
0
0
0
0
0
0
