0
0
0
0
0
0
0
0
0
0
0
0
0
0
0
0
0
0
0
0
0
0
0
0
0
0
0
0
0
0
0
0
0
0
0
0
0
0
0
0
0
0
0
0
0
0
0
0
0
0
0
0
0
0
0
0
0
0
0
0
0
0
0
0
0
0
11111111
11111111
0
0
0
0
11111111
11111111
11111110
11111110
11111111
11111111
0
0
0
0
0
0
0
0
0
0
0
0
0
0
11111111
11111111
11111110
11111100
11111101
11111110
11111101
11111101
11111100
11111101
11111010
11111100
11111111
11111101
11111110
11111111
11111111
0
0
0
0
0
0
0
0
0
0
11111111
11111110
11111100
11111000
11110110
11111000
11111011
11111100
11111100
11111100
11111110
11111110
11111111
1
0
10
1
0
11111110
0
0
0
0
0
0
0
1
10
0
1
11
0
11111110
11111100
11111011
11111110
11111111
11111110
11111011
11111110
11111010
11111011
11111101
1
11
1
11111110
11111111
0
0
0
0
0
0
1
1
11111111
1
10
0
11111111
11111110
11111110
110
0
100
100
100
11111111
11111101
10
10
0
0
11111111
0
0
0
0
0
0
0
11111110
0
11111111
11111110
101
100
11111110
11111110
100
1
11111010
110
100
11111110
110
11
1
11111011
0
0
1
1
0
0
0
0
1
0
11111110
0
11
100
11
0
11111111
0
11111001
11111110
11
1
0
1
0
11111111
0
0
11111111
1
10
0
0
0
0
0
10
10
0
1
11111111
0
1
0
0
11111111
11111101
11111111
11
0
0
101
11111110
11111111
1
1
11111101
11111111
0
1
10
0
0
0
11
11
1
1
11111110
0
10
100
11111111
0
10
0
1010
101
100
0
1
11111110
11111101
0
11111100
11111110
11
1
0
0
0
1
10
1
11111111
1
101
0
11
110
10
11111100
11111101
100
1011
100
1000
11
0
1
100
0
0
11111011
11111111
11111111
0
0
0
0
0
1
11111100
11111110
11
10
11111111
10
1
11111010
11
1
110
111
1
110
100
10
11111111
0
11111111
11111100
11111111
0
0
0
0
0
0
11
11111111
0
0
11111111
11111101
100
11111111
11111111
11111101
0
1
11
101
1
10
0
1
11111110
11111111
0
0
0
0
0
0
0
0
11
10
11111110
10
1
0
100
1
0
11111011
0
1
0
1
101
101
101
10
101
101
10
0
0
0
0
0
0
1
10
0
1
11111111
0
0
10
11111111
11111101
11111100
11111111
1
10
101
100
100
100
11
101
10
0
11111111
0
0
0
0
0
0
10
1
110
101
110
11
11
11111101
11111101
11111101
11111110
0
100
100
100
100
10
0
11111110
11111101
11111110
11111110
11111111
0
0
0
0
11111111
0
10
1000
101
10
100
0
11111110
11111110
11111110
0
10
110
100
100
11111100
0
11111111
11111101
11111111
11111111
0
0
0
0
0
0
11111101
0
0
1
0
0
0
101
100
1
100
1000
1000
11
10
11111101
11111010
0
1
11111101
11111011
11111100
0
0
0
0
0
0
11111101
11111111
11111110
11111111
0
1
11
100
1100
1010
110
101
11111100
11111100
11111001
11111011
11111110
11111110
11111110
11111001
11110110
11111011
0
0
0
0
0
0
11111101
11111100
11111100
11111011
11111001
11111110
11111111
1
1
11111111
11111000
11111011
11110101
11110101
11110110
11111000
11111001
11110110
11111000
11111000
11111001
11111110
0
0
0
0
0
0
11111101
11111101
11111101
11111010
11111010
11110101
11111000
11111101
11110010
11111010
11110011
11110011
11110010
11111010
11110011
11111000
11111001
11111100
11111110
11111010
11111011
11111111
0
0
0
0
0
0
11111111
11111111
11111101
11111111
11111100
11111100
11111000
11111010
11111000
11111001
11111100
11111101
11111111
11111101
11111101
11111100
11111010
11111111
11111011
11111011
11111011
0
0
0
0
0
0
0
11111111
0
0
1
0
11111101
11111101
11111100
0
11111110
11111010
11111100
11111001
11111011
11111101
11111001
11111100
11111101
11111011
11111001
11111100
0
0
0
0
0
0
0
0
1
10
11111111
11111110
11111110
11111100
11111100
11111011
11110111
11111001
11111001
11111010
11110110
11111011
11111010
11111000
11111111
11111110
11111101
0
0
0
0
0
0
0
0
0
0
0
11111100
11111100
11111110
11111111
11111010
11111110
11111111
11111100
0
11111011
11111011
11111101
11111110
11111101
11111111
0
11111111
0
0
0
0
0
0
0
0
0
0
0
0
1
1
100
1
0
1
0
1
1
1
1
10
11
10
1
0
0
0
0
0
0
0
0
0
0
0
0
0
0
0
0
0
0
0
0
0
0
0
0
0
0
0
0
0
0
0
0
0
0
