0
0
0
0
0
0
0
0
0
0
0
0
0
0
0
0
0
0
0
0
0
0
0
0
0
0
0
0
0
0
0
0
0
0
0
0
0
0
0
0
0
0
0
0
0
0
0
0
0
0
0
0
0
0
0
0
0
0
0
0
0
0
0
11111111
11111110
11111110
11111110
11111101
11111100
11111101
11111110
11111110
11111111
11111110
11111110
11111111
0
0
0
0
0
0
0
0
0
0
0
0
0
0
11111111
0
0
11111011
11111110
0
0
11111100
11111100
0
11111110
0
0
0
0
11111111
1
1
0
0
0
0
0
0
0
0
0
0
0
0
11111111
0
0
110
110
11
0
1
0
0
10
11111111
1
11
101
101
10
0
0
0
0
0
0
0
11111111
0
1
0
11111101
10
1
11
0
0
11
0
11111110
11111100
1
10
11
100
101
100
10
0
0
0
0
0
0
1
0
100
100
11
1
1
11
11111110
0
0
11111111
0
0
0
11
1000
1000
110
110
100
1
0
0
0
0
0
0
11
1
10
101
1
1
11111111
0
11111111
0
11
1
11111111
111
110
111
1001
1001
1000
1000
111
10
0
1
0
0
0
0
10
0
0
11
0
0
0
11111110
0
1
10
100
101
11
110
110
0
100
110
100
100
100
10
1
0
0
0
0
10
10
0
1
0
11111110
11
11
100
11
11
1
100
110
11
0
1
0
1
11111111
0
1
11
10
0
0
0
0
100
10
0
0
0
11111101
11
1
11
11
0
101
1000
111
0
0
11
0
0
1
0
11111111
10
0
0
0
0
0
11
0
0
0
0
10
10
11
100
11
10
0
100
1
11111111
11111110
11111111
11111110
11111110
11111111
0
11111111
0
1
0
0
0
0
1
11111111
0
10
0
0
11
10
11111101
1
111
11111111
0
11111101
0
0
1
0
11111111
11111110
11111100
11111111
1
1
0
0
0
0
0
11111111
0
11
11
100
100
11
0
101
0
11111010
11111110
11111100
100
0
11111110
1
11111100
11111011
11111000
11111111
1
0
0
0
0
0
0
0
100
1
100
1
10
11111111
10
111
11111100
11111000
11111110
1
110
11111101
11
0
11111110
11111000
11111001
0
11111111
0
0
0
0
0
0
1
111
10
11
0
0
1
101
110
11111000
11111011
11111110
11111110
101
1
0
11111100
0
11111101
11111100
11111110
11111011
11111111
0
0
0
0
0
1
11
0
1
100
1
11111111
0
11111111
0
11110111
0
11111110
0
11111111
0
0
11111111
11111111
11111010
11111100
11111010
11111111
0
0
0
0
1
1
100
11111111
0
1
110
0
11111101
11111011
11111011
11111101
11111110
0
11111101
0
1
11111111
11111111
10
0
0
11111101
0
0
0
0
0
1
10
10
0
11111110
1
111
1
11111111
11111000
11111101
11111011
11111110
11111110
11110111
11111011
1
1
0
1
11111100
0
11111101
0
0
0
0
0
1
10
1
11
1
11
11
11111111
11110110
11111011
11111011
11111111
1
0
0
11111101
1
0
1
10
11111110
0
11111111
0
0
0
0
0
0
1
0
11
100
11
101
11111010
11110011
11110111
11111011
11111110
11111110
0
11111011
11111101
11
1
0
11
0
0
0
0
0
0
0
0
0
1
0
0
100
10
1
11111101
11111101
11111110
11111100
11111110
11111111
1
0
11111111
11111111
0
1
1
0
0
0
0
0
0
0
0
0
0
0
0
1
10
1
1
110
10
11111110
11111111
1
10
0
0
1
0
100
10
10
1
0
0
0
0
0
0
0
0
1
0
100
100
11
10
110
1
0
0
0
0
0
11
1
0
1
0
0
1
0
0
0
0
0
0
0
0
0
1
101
110
110
101
111
10
1
1
11111111
0
10
10
10
11
10
0
0
0
0
0
0
0
0
0
0
0
0
0
1
10
100
100
100
1
100
100
100
10
1
10
11
1
0
0
0
0
0
0
0
0
0
0
0
0
0
0
0
0
0
0
1
0
1
1
1
1
0
0
0
0
0
0
0
0
0
0
0
0
0
0
0
0
0
0
0
0
0
0
0
0
0
0
0
0
0
0
0
0
0
0
0
0
0
0
0
