0
0
0
0
0
0
0
0
0
0
0
0
0
0
0
0
0
0
0
0
0
0
0
0
0
0
0
0
0
0
0
0
0
0
0
0
0
0
0
0
0
1
1
10
1
0
0
0
0
0
0
0
0
0
0
0
0
0
0
0
0
0
0
0
0
0
0
0
11111111
11111111
0
11
10
11
1
11
0
0
1
0
0
0
0
0
0
0
0
0
0
0
0
0
11111111
11111101
11111101
11111011
11111000
11111100
11111111
0
11111110
0
100
111
11
11
11
10
0
0
0
0
0
0
0
0
0
11111111
11111110
11111110
11111010
11111110
0
11111111
11111101
11111111
1
0
1
0
1
11
10
0
1
110
10
0
0
0
0
0
0
0
11111110
11111110
11111101
11111010
11111110
0
0
1
11111011
11111111
11111111
11111111
10
10
11
0
101
0
10
101
10
1
0
0
0
0
0
11111111
11111011
11111100
11111001
11111101
11111111
11111100
0
11111111
0
11111111
11
1
0
10
1
110
1
0
10
1
100
100
1
0
0
0
0
11111101
11111010
11111110
11111101
1
0
11111110
0
11111111
10
11111110
101
0
101
1000
1000
10
1100
101
101
100
111
100
1
0
0
0
0
11111111
11111011
11111101
1
11
11111110
11111110
11111001
11
11
0
11111101
1
10
100
100
1000
1000
1000
1000
1000
1001
100
0
0
0
0
0
11111111
11111100
11111110
0
0
0
0
0
0
11111011
11111000
11110110
11110111
11110101
11111000
11111100
11111100
11111110
11111111
11111011
11111011
10
0
0
0
0
0
0
11111110
11111110
11111100
11111111
1
1
10
11111011
11111110
0
11111101
11110101
11110110
11101110
11011111
11011110
11100101
11101100
11110000
11110001
11110010
11111010
0
0
0
0
0
0
11111101
11111110
0
1
0
0
11111101
11111110
11111101
11111100
0
0
1
0
11111001
11101111
11100111
11100110
11101101
11101111
11110011
11110111
11111110
0
0
0
0
0
11111110
11111110
0
1
11111111
0
11
10
11
0
11111101
11111010
11111111
0
0
10
11111000
11110001
11110000
11110001
11110100
11111000
11111101
0
0
0
0
0
11111111
11111111
0
10
0
0
11111111
0
11111111
0
1
0
0
11111111
10
0
11
0
11111100
11110110
11110110
11111001
11111101
0
0
0
0
0
11111111
0
11111111
1
0
11
11111100
10
0
10
11111110
0
11
1
11111110
101
1
111
0
11111110
11111101
11111101
11111101
0
0
0
0
0
11111111
11111101
11111110
11111111
11111110
11111111
0
1
11111100
10
11111101
11111110
11111111
0
0
100
0
11
0
11111100
11111110
11111111
11111111
0
0
0
0
0
11111111
11111101
11111110
11111100
11111101
11111111
11111110
11111110
11111111
0
0
11
111
0
11
11111100
11111111
0
0
0
11111011
11111111
0
11111111
0
0
0
0
0
11111111
11111111
11
0
10
11111110
11
1
11
1
0
1
11111101
0
100
0
11
1
0
0
0
11111111
0
0
0
0
0
0
0
0
0
1
11111111
0
11
0
0
11111100
0
10
1
0
0
11111110
0
0
11111100
11111111
0
11111111
0
0
0
0
10
0
0
0
0
0
1
11
0
110
100
100
11111110
11111111
1
11111101
0
0
0
0
11111111
10
11
11111111
0
0
0
0
10
0
1
11
0
11111010
100
11
0
10
11111110
0
1
11111111
11111111
11111111
0
100
0
110
110
10
1
0
0
0
0
0
0
0
100
10
0
10
1
0
10
10
1
101
11
101
0
10
10
11111110
10
100
100
0
11
0
0
0
0
0
0
0
10
0
0
11111110
10
11111101
11111111
0
101
11111010
1
10
11111110
10
0
11111111
11111110
11111110
11111110
1
1
1
0
0
0
0
0
0
1
10
100
0
100
0
0
11111101
10
11111011
0
0
11111111
11111101
11111100
11111111
0
11111110
11111110
1
1
0
0
0
0
0
0
0
11111111
0
11111111
11111111
11111111
10
0
0
10
0
10
10
11111101
0
100
1
10
0
0
0
0
0
0
0
0
0
0
0
0
11111111
11111111
0
11111111
11111110
11111011
11111101
101
10
1
0
0
10
100
11
1
0
1
0
0
0
0
0
0
0
0
0
0
0
0
0
0
0
11111111
0
0
0
11111111
0
10
0
0
0
0
0
0
0
0
0
0
0
0
0
0
0
0
0
0
0
0
0
0
0
0
0
0
0
0
0
0
0
0
0
0
0
0
0
0
0
