0
0
0
0
0
0
0
0
0
0
0
0
0
0
0
0
0
0
0
0
0
0
0
0
0
0
0
0
0
0
0
0
0
0
0
0
0
0
0
0
0
0
0
0
0
0
0
0
0
0
0
0
0
0
0
0
0
0
0
0
0
0
0
0
0
1
0
1
0
10
10
11
1
1
0
1
1
0
0
0
0
0
0
0
0
0
0
0
0
0
0
0
0
10
1
0
0
10
10
11111111
1
10
100
10
0
0
0
0
0
0
0
0
0
0
0
0
0
0
0
1
1
11
1
11111100
11111110
1
0
11111101
0
11111110
0
0
0
11111111
1
10
0
0
0
0
0
0
0
0
0
11111111
0
0
10
1
1
11111111
110
11
1
100
101
100
0
100
110
10
100
100
10
0
0
0
0
0
0
0
0
11111111
11111111
11111111
11111111
11111111
0
11111111
10
0
10
1001
1001
1
101
111
110
0
0
10
0
0
0
0
0
0
0
11111111
0
10
1
11111111
11111100
11111110
11111010
0
11111101
11111011
11111111
11111100
110
11
100
1
11
10
0
11111110
11111110
11111111
0
0
0
0
0
0
0
0
11111111
11111110
11111110
11111110
11111010
11111011
11111001
11111101
11111111
11111100
11111000
0
11111010
11111110
11111101
0
11111111
11111110
11111100
0
0
0
0
0
0
11111111
0
11111100
11111100
11111110
1
10
11111010
11111110
11111010
11111000
11111000
11111110
11111001
11111100
11111001
11111101
11111110
10
1
0
11111100
11111101
11111111
0
0
0
0
11111110
0
11111101
11111101
0
1
11111001
11111111
11111101
11111101
11110101
11111010
11111010
11110110
11111100
11111111
10
11111111
0
11111111
11111111
11111101
11111110
11111111
0
0
0
11111111
11111101
11111010
11111100
11111101
11111101
11111101
0
101
11111100
11111111
11111010
11111011
11111011
11111111
11111101
10
10
11111111
0
11111111
11111110
11111100
11111111
11111111
0
0
0
0
11111100
11111001
11111010
11111101
1
0
11111111
110
0
11
0
1
11111110
1
11111101
11111110
0
0
1
0
10
1
0
0
0
0
0
0
11111100
11111010
11111110
11111110
101
100
101
1
1
10
11
0
11111111
11111101
0
11111101
10
11111111
11111111
0
100
0
0
0
0
0
0
0
11111110
0
100
10
10
101
1
110
110
1
111
1001
11111101
10
11111110
11111100
0
11111101
11111111
11
0
11111101
0
0
0
0
0
0
0
0
10
1
10
10
101
1
0
0
1001
101
0
10
11111100
11111101
11111000
11111010
0
11
0
11111101
1
1
0
0
0
0
0
11111110
0
0
10
11111111
0
11111111
0
111
100
101
10
11
11
11111101
11111100
11111011
0
11111111
10
1
11
1
0
0
0
0
0
11111111
11111110
11111110
11111111
0
1
0
11
11111111
10
111
111
11
11111110
0
11111111
11111111
11111111
11111110
0
10
10
0
0
0
0
0
0
0
10
11111111
11111111
11111110
1
0
11111101
0
11
100
100
1
0
1
10
10
1
11111101
10
100
1
0
0
0
0
0
0
0
11111111
0
11111111
11111111
11111111
0
10
11111000
11111110
1
1000
101
11111100
11111111
0
0
0
0
101
11
1
1
0
0
0
0
0
0
11111101
11111111
0
11111110
0
11111110
1
1
11111110
111
1011
101
0
1
0
1
10
0
1
10
1
0
0
0
0
0
0
1
1
0
11111111
0
11111100
11111110
0
1
10
100
11111111
0
11
100
1
110
101
11
11
10
10
0
0
0
0
0
0
10
100
1
1
0
11111101
0
10
11111111
11111111
11111100
11111101
0
11
1
101
100
100
1
1
0
0
0
0
0
0
0
0
0
1
11
100
101
1001
101
11111101
0
0
11111110
11111101
0
1
1
100
101
10
11111111
0
11111111
0
0
0
0
0
0
0
11111111
11111110
11111111
0
100
1001
1
10
10
11111010
11111011
11111100
1
0
1
1
1
10
1
0
0
0
0
0
0
0
0
0
11111111
11111110
11111101
11111101
11111110
10
11111101
11111110
11111110
11111110
11111100
11111001
11111001
11111011
11111100
11111011
11111110
0
1
0
0
0
0
0
0
0
0
0
0
0
0
11111111
11111111
11111101
11111101
11111110
11111101
11111001
11111010
11111100
11111101
11111101
11111101
11111101
11111110
11111111
0
0
0
0
0
0
0
0
0
0
0
0
0
0
0
0
11111110
0
0
0
11111111
0
0
0
0
0
0
0
0
0
0
0
0
0
