0
0
0
0
0
0
0
0
0
0
0
0
0
0
0
0
0
0
0
0
0
0
0
0
0
0
0
0
0
0
0
0
0
0
0
0
0
0
0
0
0
0
0
11111111
0
0
0
0
0
0
0
0
0
0
0
0
0
0
0
0
0
0
0
0
0
1
1
10
10
10
1
11111110
0
1
0
1
1
1
0
0
0
0
0
0
0
0
0
0
0
0
0
11111111
1
11
100
100
0
1
0
11111111
10
11111111
11111110
10
1
10
0
0
0
0
0
0
0
0
0
0
0
11111111
11111110
11111111
1
11
1
11111011
11111010
11111101
11111111
11111101
11111110
0
11111010
11111111
11111100
11111100
11111110
11111111
11111111
0
0
0
0
0
0
0
0
11111100
11111101
11111111
0
11111110
1
11111111
0
11
100
11
11111110
10
1
0
1
0
11111111
1
0
0
0
0
0
0
0
0
0
11111110
11111110
1
11111101
11111110
11111110
11111110
0
11111101
11111110
0
11111101
11111101
11111111
0
0
0
11111110
11111110
11111110
0
0
0
0
0
0
0
0
11111111
0
11111110
11111011
11111111
11111101
10
1
0
1
11111110
11111110
11111111
0
11111100
11111001
1
11111111
11111011
11111100
11111101
11111111
0
0
0
0
0
0
11111100
11111100
11111011
11111110
11111101
10
0
1
10
101
11111011
0
10
11111010
11111101
11111100
11
11111111
11111100
11111001
11111010
11111110
0
0
0
0
0
0
0
11111111
11111100
11111011
11111100
11111110
11111010
1
111
101
11111111
11111110
11111111
11111101
11111111
10
11111100
11111000
11111101
11111100
11111001
11111101
0
0
0
0
0
1
100
11111111
11111101
11111110
11111110
11111100
11111101
11111010
10
11
11111100
11111110
10
0
11111110
11111111
0
11111110
0
11111111
11111001
11111110
0
0
0
0
0
11111111
11
0
0
11111110
11111111
0
11111010
11110111
11111110
11111110
11111110
0
11111110
11111100
0
0
0
11111110
0
1
11111110
11111110
0
0
0
0
0
0
1
0
11111101
11111100
11111101
11111000
11111100
11111011
11111010
11111111
11111101
11111110
11
11111101
11111100
11111111
1
1
10
110
0
0
0
0
0
0
0
10
0
11111111
0
11111100
11111011
11111011
11111001
11111011
11111010
11111101
11111011
11111001
11111111
0
1
11111111
11
100
11
100
1
0
0
0
0
0
0
10
11
100
1
0
101
110
0
11111101
11111101
11110111
11111010
11111110
11111110
11111101
11111110
10
100
100
11
1
11
0
0
0
0
0
0
0
110
1010
1000
1010
111
1000
1
11111111
11111001
11111001
11111010
0
10
11111101
10
0
0
0
0
0
11
0
0
0
0
0
0
0
110
1011
1000
1000
110
100
110
11111111
11111011
0
11111000
0
100
10
101
101
0
0
100
1
101
10
0
0
0
0
0
1
11
100
1001
101
101
1101
1101
100
11111110
10
0
0
10
11
110
111
1
10
0
0
10
0
0
0
0
0
0
0
0
1
110
100
11
1001
1000
101
10
1000
101
0
1
1
11111111
1
0
100
1
0
1
0
0
0
0
0
0
1
1
0
0
0
1
0
110
0
0
1001
100
0
0
0
11111111
11111111
11111101
10
1
0
0
0
0
0
0
0
0
10
10
11111111
110
10
1
111
110
10
11111101
0
10
11
1
11
11
1
1
0
10
1
1
0
0
0
0
0
11
10
1
11111111
1
1
10
10
1
0
0
11111111
0
0
10
10
11
100
0
111
111
1
0
0
0
0
0
0
10
11
1
1
10
11
1
11
100
111
11
11111111
11
100
0
0
0
11
110
101
110
10
1
0
0
0
0
0
0
0
0
1
0
100
100
10
0
0
0
0
0
11111101
11111110
1
1
10
10
11
100
1
1
0
0
0
0
0
11111111
11111110
11111111
11111101
11111011
11111111
0
11111101
11111101
0
11111111
11111111
11111100
11111011
11111000
11111000
11111010
11111101
11111110
0
0
0
0
0
0
0
0
0
0
0
0
11111111
11111110
11111101
11111001
11110111
11111001
11110111
11111000
11110111
11111000
11111001
11110111
11111001
11111001
11111101
11111110
11111111
0
0
0
0
0
0
0
0
0
0
0
0
0
0
11111110
11111111
0
11111111
11111110
11111110
11111111
11111111
11111110
11111110
11111110
0
0
0
0
0
0
0
0
0
0
0
0
0
0
0
0
0
0
0
0
0
0
0
0
0
0
0
0
0
0
0
0
0
0
0
0
