0
0
0
0
0
0
0
0
0
0
0
0
0
0
0
0
0
0
0
0
0
0
0
0
0
0
0
0
0
0
0
0
0
0
0
0
0
0
0
0
0
0
0
0
0
0
0
0
0
11111111
0
0
0
0
0
0
0
0
0
0
0
0
0
0
0
0
0
0
0
1
1
1
10
1
0
0
0
11111110
11111110
0
0
0
0
0
0
0
0
0
0
0
0
0
0
0
0
11
100
110
101
11
11
11
11111111
11111110
11111101
11111100
11111100
11111101
11111111
0
0
0
0
0
0
0
0
0
0
0
0
0
0
0
1
0
1
0
100
11111110
1
101
101
0
11111111
11111110
11111111
11111111
0
0
0
0
0
0
0
0
0
0
0
1
10
1
0
11111110
0
11111100
10
0
11111110
11111110
10
0
11111111
0
11111111
11111110
11111111
0
0
0
0
0
0
1
11
1
0
100
101
1
11111110
0
1
1
11
10
11
0
0
11111110
0
0
11111101
11111100
11111111
0
0
0
0
0
0
0
10
10
10
10
11
100
1
11
0
11111111
10
11
0
110
0
11111101
11
0
11111100
11111100
0
0
0
0
0
0
0
0
0
101
100
101
100
1001
10
101
10
11
1
100
1
0
1
11111110
10
0
11111011
11111110
0
0
0
0
0
11111111
0
10
1
100
10
11
100
100
110
11111010
11111100
0
11
11111111
0
0
11111100
11111111
10
11111111
11111100
11111111
0
0
0
0
0
11111110
11111101
11111101
11111110
0
0
11111111
11111101
11110101
11101110
11101101
11110000
11111001
11111110
11111111
10
0
0
0
11111111
11111110
11111111
0
0
0
0
0
0
11111110
11111010
11111000
11111001
11110101
11110011
11101101
11101000
11101000
11101010
11110111
11111010
11111101
1
11
11111110
0
0
11111101
11111111
11111110
11111111
1
0
0
0
0
0
11111110
11111001
11110001
11101111
11101100
11101000
11101001
11110000
11111000
1
11
11111110
1
100
11111101
1
11111011
11111100
11111111
11111101
11111101
0
0
0
0
0
0
0
11111110
11111000
11110011
11110001
11110001
11111000
11111100
11
100
101
1
11111111
1
0
0
11111101
11111110
11111100
0
11111110
0
0
1
0
0
0
0
0
11111110
11111110
11111101
1
110
10
1010
11
11
110
0
10
1
1
11111111
10
1
0
11
11111111
0
10
0
0
0
0
0
0
11111111
1
101
110
101
11
10
0
1
0
11111111
11111100
0
11111110
11111100
1
11111100
11111101
11
11111111
0
11
10
0
0
0
0
0
1
11
101
10
10
0
11111111
0
11111111
100
100
1
10
0
0
1
100
0
1
11111111
0
100
11
1
0
0
0
0
1
11
100
0
11111110
11111111
11111110
11111110
0
11
10
11
11
11111101
0
0
10
11111010
0
11111110
11111110
1
11
0
0
0
0
0
10
10
100
0
1
0
100
1
1
0
0
0
10
0
10
0
0
11111111
1
11111111
11111100
1
11
0
0
0
0
0
0
1
0
11111111
10
11111111
11111111
11111110
11111110
0
11
11111110
11111110
11111111
10
1
11111111
11
11
1
0
10
11
0
0
0
0
0
10
10
0
11111110
1
11111111
1
0
0
11111110
11111110
11
11111111
0
0
0
11111110
11111111
11111110
0
11
1
1
0
0
0
0
0
11
1
10
0
10
1
11111101
0
11111110
1
0
0
1
11111110
0
10
11111111
11111111
0
10
101
0
0
0
0
0
0
0
0
1
110
11111111
0
1
11111110
11111111
0
11111110
0
10
0
0
1
0
10
11111111
0
1
10
0
0
0
0
0
0
0
0
0
1
1
100
11
10
11111110
0
11111111
1
0
0
1
11111100
0
1
11111111
0
11111111
0
0
0
0
0
0
0
0
0
10
0
0
0
1
0
11111110
11111101
0
11
0
0
11111110
0
11111110
11111110
0
0
11111111
0
0
0
0
0
0
0
0
0
1
1
0
1
11
100
11
11
11
11111110
11111110
11
0
11111100
11111100
11111101
0
11111110
11111111
0
0
0
0
0
0
0
0
0
0
11111111
11111111
0
0
0
1
10
0
11111110
0
1
0
11111111
11111111
11111111
0
11111111
0
0
0
0
0
0
0
0
0
0
0
0
0
0
0
0
0
0
0
0
0
0
0
0
0
0
0
0
0
0
0
0
0
0
